<pad>	0
<unk>	0
<s>	0
</s>	0
<ans>	0
</ans>	0
▁	-2.43054
▁کے	-3.23486
▁میں	-3.56553
▁کی	-3.62442
▁،	-3.65545
؟	-3.97885
▁اور	-4.1337
▁سے	-4.2081
▁کو	-4.30234
▁ہے	-4.30308
▁کیا	-4.36511
▁کا	-4.39303
▁نے	-4.41718
▁پر	-4.44823
▁ایک	-4.79184
▁اس	-5.11369
▁کس	-5.13227
▁تھا	-5.16454
▁لئے	-5.22767
▁ہے۔	-5.25887
▁طور	-5.29108
▁ہیں	-5.40547
▁گیا	-5.43597
)	-5.50602
▁جو	-5.59144
وں	-5.59841
▁(	-5.63287
▁کرنے	-5.64385
▁ساتھ	-5.65139
▁کون	-5.70451
▁کہ	-5.78746
▁جس	-5.81454
▁جاتا	-5.82234
▁زیادہ	-5.87289
ی	-5.96082
▁سی	-6.04884
▁سب	-6.08078
▁ہیں۔	-6.08679
▁بعد	-6.15173
▁تک	-6.15253
▁استعمال	-6.16139
▁تھا۔	-6.16259
▁یہ	-6.165
ز	-6.19104
س	-6.20366
▁تھی	-6.22105
▁بھی	-6.31282
▁ان	-6.31367
▁یا	-6.32862
▁نام	-6.38364
▁سا	-6.41988
▁سال	-6.44914
▁دیا	-6.46601
▁نہیں	-6.49288
،	-6.49634
۔	-6.51275
▁تھے	-6.5172
▁والے	-6.55309
▁کرتے	-6.58323
▁کرتا	-6.58815
▁پہلے	-6.59464
▁شامل	-6.59574
▁ڈی	-6.61218
▁وہ	-6.6153
▁کر	-6.61995
▁اپنے	-6.63064
ا	-6.66169
▁کم	-6.68364
▁ہوا	-6.69378
▁ذریعہ	-6.69562
ن	-6.70023
▁شہر	-6.72288
▁گئی	-6.75059
ر	-6.75212
▁دی	-6.7627
و	-6.76771
▁عام	-6.76878
▁بہت	-6.77433
▁کب	-6.77954
▁آف	-6.79316
▁دوران	-6.80825
▁ہونے	-6.82228
▁کیا۔	-6.82715
▁کہا	-6.85573
▁جب	-6.85733
▁بی	-6.87985
▁طرح	-6.90117
ک	-6.90158
م	-6.91574
ل	-6.93592
▁کچھ	-6.93625
▁شروع	-6.94069
▁غیر	-6.94167
نگ	-6.94717
▁کتنے	-6.95227
▁دو	-6.96134
▁اے	-6.9624
▁حاصل	-6.96533
▁صدی	-6.97878
▁جنگ	-6.99435
▁ہوئے	-6.99468
▁پی	-7.02819
▁قسم	-7.02931
ڈ	-7.03664
▁لیکن	-7.04509
▁ایس	-7.0475
▁اپنی	-7.05633
▁کام	-7.05821
▁جیسے	-7.0756
▁وقت	-7.07825
▁طرف	-7.08893
▁اہم	-7.09135
▁ہوتا	-7.09942
یں	-7.10942
ہ	-7.1145
▁وجہ	-7.1234
▁کہاں	-7.12661
▁امریکی	-7.14629
▁ہی	-7.15098
ت	-7.15517
▁دور	-7.17149
▁تیار	-7.17596
-	-7.18446
ے	-7.18731
▁والی	-7.19382
:	-7.20045
ٹ	-7.20385
▁آئی	-7.21659
▁و	-7.22476
▁ویں	-7.237
▁ای	-7.23875
▁نیو	-7.25262
▁تھی۔	-7.26077
یا	-7.26785
▁اسے	-7.26953
▁تر	-7.27242
▁تقریبا	-7.27416
▁ہوئی	-7.28036
▁حکومت	-7.29873
▁بن	-7.30081
▁تھے۔	-7.30126
▁بار	-7.31574
▁پیش	-7.32129
▁کرنا	-7.32207
▁پہلی	-7.3409
▁حصہ	-7.34282
نا	-7.34289
s	-7.3463
▁بڑے	-7.35343
▁گئے	-7.36954
▁متحدہ	-7.37389
▁تعمیر	-7.38921
▁جانا	-7.39015
▁بارے	-7.39295
▁کرتی	-7.40608
▁ایم	-7.41259
▁جاتی	-7.41736
▁تو	-7.41777
▁ٹی	-7.41801
▁مختلف	-7.42641
▁بنیادی	-7.43071
▁دہائی	-7.43095
▁جاری	-7.43315
▁صرف	-7.43428
پ	-7.43837
▁امریکہ	-7.44384
ون	-7.44657
ری	-7.45109
▁کی۔	-7.45339
▁زبان	-7.45763
▁-	-7.46281
▁ملک	-7.46585
▁دنیا	-7.4681
▁ہوتی	-7.47106
▁این	-7.47532
▁ہر	-7.48157
▁دوسرے	-7.49922
▁آبادی	-7.50329
▁جن	-7.50694
ش	-7.50942
▁قائم	-7.51166
▁کتنی	-7.51258
▁دیگر	-7.51295
▁واقع	-7.51834
▁آر	-7.52468
▁تمام	-7.52681
▁پیدا	-7.52952
ف	-7.53439
▁کسی	-7.53871
▁پہلا	-7.5413
▁گروپ	-7.55308
▁بڑی	-7.55618
▁خلاف	-7.55622
ب	-7.56309
لی	-7.57912
▁شمالی	-7.59201
▁وی	-7.59228
▁ابتدائی	-7.60143
▁اسکول	-7.60456
▁جسے	-7.60477
▁یونیورسٹی	-7.60558
▁درمیان	-7.61694
▁قانون	-7.62503
▁کردیا	-7.6272
▁اب	-7.62756
▁لوگوں	-7.62771
▁کیے	-7.63128
▁جبکہ	-7.63161
▁ہوتے	-7.63395
▁ریاست	-7.6452
▁ایل	-7.64629
▁ایف	-7.65142
▁تشکیل	-7.65273
گ	-7.65488
▁مطابق	-7.65783
▁ہو	-7.66381
٪	-7.66399
سی	-7.66475
▁ریاستہائے	-7.66833
چ	-7.67222
ان	-7.67269
▁سلطنت	-7.68825
ات	-7.69158
سٹ	-7.69669
▁خاص	-7.70142
▁ترقی	-7.7058
▁نظام	-7.7073
▁شدہ	-7.71434
▁عمل	-7.71897
▁یو	-7.72007
▁جان	-7.72027
ین	-7.72316
▁17	-7.73017
▁برطانیہ	-7.73266
▁تین	-7.73554
▁بنیاد	-7.73792
▁علاقے	-7.75132
▁درجہ	-7.75441
▁تاریخ	-7.75502
▁مابین	-7.7602
▁او	-7.76057
د	-7.76538
▁پیمانے	-7.76855
نے	-7.76943
▁لی	-7.76945
▁۔	-7.77132
▁بڑا	-7.77275
▁جی	-7.7742
▁مغربی	-7.77635
▁دینے	-7.77809
▁مقامی	-7.78966
▁ختم	-7.79034
▁دوسری	-7.79035
▁دونوں	-7.79342
▁والا	-7.79625
▁18	-7.79647
▁فراہم	-7.79892
▁اصل	-7.79894
▁برطانوی	-7.80301
▁پاس	-7.80614
▁تبدیل	-7.80742
▁اکثر	-7.80837
▁انہوں	-7.81333
تا	-7.81438
▁مکمل	-7.81639
▁بال	-7.81663
▁ذریعے	-7.81702
7	-7.82502
▁جنوبی	-7.82587
▁علاقوں	-7.82904
▁سرکاری	-7.8316
▁دوبارہ	-7.83863
▁علاوہ	-7.84896
▁قابل	-7.85221
▁صدر	-7.85814
▁کیونکہ	-7.86203
▁چرچ	-7.86336
▁مشرقی	-7.86426
▁سمجھا	-7.86527
▁جانے	-7.87248
▁بندی	-7.87752
▁کار	-7.87901
▁سکتا	-7.88466
▁رہا	-7.88855
▁چیز	-7.88884
▁جگہ	-7.89317
▁نئے	-7.89548
▁کمپنی	-7.89581
▁تحت	-7.89683
را	-7.8993
▁فرانسیسی	-7.90027
▁اجازت	-7.90298
▁مشہور	-7.90366
▁اعلی	-7.90435
ج	-7.90469
▁جدید	-7.90493
▁حصے	-7.90778
▁گیا۔	-7.90928
▁بین	-7.91133
▁جرمن	-7.91235
▁ملین	-7.91342
▁جہاں	-7.91608
▁کن	-7.92083
ٹی	-7.93459
▁کردہ	-7.94014
▁لے	-7.9415
▁گھر	-7.94176
▁کنٹرول	-7.94492
▁فٹ	-7.94999
▁موسم	-7.95259
▁آخر	-7.95537
▁مدد	-7.962
.	-7.96824
▁3	-7.97175
▁یورپی	-7.97208
▁چین	-7.97263
▁ممالک	-7.97469
▁آغاز	-7.98059
▁مین	-7.98252
▁کوئی	-7.98329
▁خیال	-7.98656
▁سسٹم	-7.99251
"	-7.99398
▁خود	-7.99471
▁کوشش	-7.9986
▁مثال	-7.99907
رو	-7.99923
▁نتیجے	-8.00457
▁دن	-8.0057
▁زمین	-8.00717
▁فی	-8.00766
▁تقسیم	-8.01602
▁اعلان	-8.01832
▁لیگ	-8.01833
▁ہم	-8.01998
تھ	-8.02116
▁کتنا	-8.0214
وس	-8.02303
▁سٹی	-8.02427
▁اصطلاح	-8.0278
▁تعلیم	-8.03008
▁قدیم	-8.0338
▁فیصد	-8.03382
ائی	-8.0344
▁سطح	-8.03565
نی	-8.03817
▁ضرورت	-8.04245
ق	-8.04355
▁کبھی	-8.04866
u	-8.04876
▁یونین	-8.04885
▁فوج	-8.0498
▁بنایا	-8.05081
▁سیاسی	-8.05219
▁ریکارڈ	-8.05246
▁16	-8.05623
1	-8.05817
▁2	-8.05842
▁عظیم	-8.0606
▁فلم	-8.0631
a	-8.06468
▁یونانی	-8.06476
▁مسیح	-8.07018
▁بیان	-8.07434
▁انگریزی	-8.07534
▁15	-8.07538
▁موسیقی	-8.07641
▁لوگ	-8.07675
ور	-8.07689
تی	-8.08324
▁فرانس	-8.0838
▁جا	-8.0844
▁حمایت	-8.08509
ٹا	-8.08893
▁منتقل	-8.08918
▁فوجی	-8.08968
▁اثر	-8.09041
▁قریب	-8.09048
▁"	-8.09173
▁خاندان	-8.09216
ٹر	-8.09299
▁بنانے	-8.09624
▁اندر	-8.09631
▁سینٹ	-8.09692
▁تاہم	-8.09917
▁وسیع	-8.1025
▁لیا	-8.10354
▁رنگ	-8.10391
▁اینڈ	-8.10541
وا	-8.10909
▁یارک	-8.10922
▁ڈیزائن	-8.11344
▁حیثیت	-8.11428
▁کئی	-8.11604
▁شکل	-8.11924
i	-8.12362
▁لندن	-8.12449
▁دیا۔	-8.12792
▁کردار	-8.12896
▁تعداد	-8.12964
▁سیزن	-8.13097
e	-8.13199
▁وسطی	-8.13425
▁نئی	-8.13747
▁جاسکتا	-8.14087
▁معاہدے	-8.14348
▁موجود	-8.14607
ٹو	-8.14611
ع	-8.14658
▁گا	-8.14939
▁مقابلے	-8.15048
▁چار	-8.15549
▁رکھا	-8.15887
▁زندگی	-8.16018
کس	-8.16347
▁10	-8.16816
ار	-8.16874
▁نسل	-8.17623
▁جنوب	-8.17662
▁قبل	-8.17898
y	-8.17954
▁مبنی	-8.18349
▁طاقت	-8.1868
ح	-8.18694
▁ویسٹ	-8.18955
▁کمی	-8.18975
▁قومی	-8.19141
▁کل	-8.19178
▁موت	-8.19272
ول	-8.19407
▁ہوائی	-8.19699
▁الاقوامی	-8.19995
▁20	-8.20099
▁یورپ	-8.2031
وی	-8.20429
▁1	-8.20585
'	-8.20989
▁فروخت	-8.21108
▁میل	-8.2121
▁جاتے	-8.21985
▁افراد	-8.22044
▁رہے	-8.22287
▁لیے	-8.22361
کی	-8.22774
اس	-8.22804
بی	-8.22963
نٹ	-8.23221
▁الگ	-8.23244
رز	-8.23765
▁متاثر	-8.24107
▁بادشاہ	-8.24203
▁لینڈ	-8.24246
▁ال	-8.24649
▁پارٹی	-8.24956
▁مرکز	-8.25005
▁بات	-8.25124
▁لائن	-8.25141
▁آخری	-8.2515
▁رومن	-8.25169
▁5	-8.25291
▁نظر	-8.2587
▁عوامی	-8.2595
ال	-8.26498
▁پارک	-8.26843
▁انہیں	-8.26966
▁شائع	-8.27957
▁/	-8.28032
▁مل	-8.28237
▁ہوا۔	-8.28776
تے	-8.29005
n	-8.29551
▁چینی	-8.29665
▁حملہ	-8.29694
▁توانائی	-8.30587
▁کھیل	-8.30704
▁انسانی	-8.30782
؛	-8.31479
▁پانی	-8.31522
▁وضاحت	-8.31618
▁جائے	-8.31686
▁اپنا	-8.31871
▁نیشنل	-8.31929
2	-8.31991
▁مطلب	-8.32033
▁ظاہر	-8.32095
سن	-8.32108
▁مشتمل	-8.32137
▁جنرل	-8.32357
▁م	-8.3239
یو	-8.32396
▁شمال	-8.32619
t	-8.33153
▁ڈالر	-8.33229
▁تھیں	-8.33389
▁12	-8.33728
▁پرجاتیوں	-8.33763
▁مشرق	-8.33775
▁ٹیلی	-8.33958
▁نو	-8.34367
▁سر	-8.34369
▁مقصد	-8.34454
▁ایچ	-8.34741
ڈی	-8.34758
بر	-8.34807
▁لا	-8.35946
▁فن	-8.35977
▁برقرار	-8.36282
▁ہاؤس	-8.36415
ڈو	-8.36494
▁روم	-8.36527
o	-8.36638
▁حالانکہ	-8.36838
▁کالج	-8.36901
▁جمہوریہ	-8.37055
▁حکمرانی	-8.37137
▁روایتی	-8.37144
▁حوالہ	-8.37154
▁مرکزی	-8.37155
▁قبضہ	-8.37593
▁موجودہ	-8.37757
ٹن	-8.37787
کا	-8.37855
p	-8.37919
▁اسٹیشن	-8.38
▁مذہبی	-8.38226
▁پانچ	-8.3825
▁اضافہ	-8.38255
c	-8.39867
لا	-8.39958
▁انگلینڈ	-8.40042
▁بھر	-8.40062
▁واحد	-8.40154
▁قیادت	-8.40267
▁آزاد	-8.40627
▁جزیرے	-8.4072
▁بجائے	-8.40833
▁اگر	-8.40975
▁سوویت	-8.41265
کو	-8.41614
ٹس	-8.41863
▁کونسل	-8.4223
0	-8.4224
▁بل	-8.4231
پی	-8.42399
▁دیتا	-8.4242
▁آزادی	-8.43332
▁ٹیم	-8.43697
▁پھر	-8.43719
ما	-8.43866
▁پیرس	-8.44077
▁واپس	-8.44286
▁رکھنے	-8.44542
▁باہر	-8.44656
▁شو	-8.44904
▁مطالعہ	-8.45008
m	-8.45105
▁بے	-8.45617
▁شکار	-8.45696
▁خدمات	-8.45721
▁مارچ	-8.45786
▁کتاب	-8.45863
▁دار	-8.45916
▁منتخب	-8.46079
▁C	-8.46163
▁سکتے	-8.46201
▁مئی	-8.46588
یشن	-8.46788
▁وکٹوریہ	-8.47162
▁ستمبر	-8.47286
▁طلباء	-8.47405
▁رکھی	-8.47432
لو	-8.47486
▁14	-8.47506
▁2010	-8.47634
▁13	-8.47756
یت	-8.47874
▁میٹر	-8.47931
▁عمر	-8.4795
▁11	-8.48091
من	-8.48574
▁سالوں	-8.48986
▁تاریخی	-8.49208
▁ادا	-8.49387
▁متعدد	-8.49488
▁کیسے	-8.49632
▁لکھا	-8.49639
▁اگرچہ	-8.49884
▁اوائل	-8.49996
l	-8.50208
نس	-8.50509
▁ہائی	-8.5051
▁6	-8.50543
▁19	-8.50656
▁ملکہ	-8.5071
▁میوزک	-8.50734
5	-8.50813
▁شہنشاہ	-8.51111
▁مار	-8.51323
▁8	-8.51493
▁بدھ	-8.51507
▁وزیر	-8.5187
▁خواتین	-8.51996
▁قانونی	-8.52123
▁نہ	-8.52152
▁روسی	-8.52295
▁ہندوستان	-8.52323
ڈر	-8.5234
g	-8.52442
ئی	-8.52474
▁مغرب	-8.52507
▁سو	-8.52526
▁لفظ	-8.52638
▁متعارف	-8.52761
کر	-8.52779
▁جون	-8.5327
▁4	-8.5336
▁آپ	-8.53369
▁دریافت	-8.53661
▁نقصان	-8.53745
▁جمع	-8.53799
▁دوسرا	-8.54179
▁حد	-8.54191
▁دیتے	-8.5446
▁رہی	-8.54738
▁ذمہ	-8.5483
A	-8.54847
▁نمبر	-8.5496
▁پروگرام	-8.55286
▁میک	-8.55548
▁چھ	-8.55879
▁نقطہ	-8.5588
▁ایئر	-8.5605
▁تاکہ	-8.56145
▁روشنی	-8.56198
▁چھوڑ	-8.56369
▁شوپن	-8.5641
▁مواد	-8.56415
▁بولی	-8.56519
▁گی	-8.5659
▁شہری	-8.56615
▁کلب	-8.56699
▁اسی	-8.56882
▁بند	-8.56931
▁بغیر	-8.57076
▁خصوصیات	-8.57111
▁ہسپانوی	-8.57126
▁انداز	-8.57129
▁بیل	-8.5715
▁قرار	-8.57209
▁شکست	-8.57343
▁تجویز	-8.57477
می	-8.57545
▁جنوری	-8.57641
▁وفاقی	-8.57746
▁لڑائی	-8.57888
▁مقام	-8.57986
▁حصوں	-8.58827
▁مقابلہ	-8.58827
▁طویل	-8.59373
▁2011	-8.5938
▁2008	-8.59381
▁جرمنی	-8.59462
▁چھوٹے	-8.59784
▁دے	-8.59798
زم	-8.59866
▁ورک	-8.5995
▁افریقی	-8.60059
▁دارالحکومت	-8.60059
▁طریقہ	-8.60059
▁نسلی	-8.6008
▁تجارتی	-8.60238
▁ثقافت	-8.60552
▁کیوں	-8.60824
▁تعلقات	-8.61065
▁اختیار	-8.61121
▁آج	-8.61323
▁علاقہ	-8.61864
▁نمائندگی	-8.61864
▁سینٹر	-8.61913
▁جیسا	-8.62039
▁مقبول	-8.62265
▁کلومیٹر	-8.62427
▁2007	-8.62439
▁مر	-8.62895
▁کینیڈا	-8.63134
▁جہاز	-8.63194
سل	-8.63546
▁کیتھولک	-8.63703
▁انتخاب	-8.63979
▁خطے	-8.64019
▁فری	-8.64031
▁7	-8.6417
4	-8.64231
▁شناخت	-8.64276
▁بچوں	-8.64446
▁مذہب	-8.646
▁تنظیم	-8.6476
▁اکتوبر	-8.64852
▁پایا	-8.64857
▁نمایاں	-8.64998
▁لکڑی	-8.65286
▁2009	-8.6529
▁2013	-8.65296
▁منسلک	-8.65431
▁اپریل	-8.65431
فی	-8.65607
▁مشترکہ	-8.65728
▁بو	-8.65773
ڈا	-8.65796
▁ہیون	-8.65861
▁دیکھا	-8.65928
▁معاشی	-8.66115
▁اینٹی	-8.66205
▁سروس	-8.66358
▁ریاستوں	-8.66585
▁سفر	-8.66617
▁نظریہ	-8.66911
▁کاؤنٹی	-8.67154
▁مزید	-8.67485
▁خدا	-8.6749
▁حملے	-8.67519
اں	-8.676
▁اختتام	-8.67782
▁قدرتی	-8.67938
I	-8.67985
جی	-8.68068
مین	-8.68152
▁آئین	-8.68159
▁نیٹ	-8.68202
گو	-8.68205
کن	-8.68503
▁اگست	-8.68529
h	-8.68606
▁اسٹریٹ	-8.68681
▁شہروں	-8.68875
خ	-8.68935
▁فتح	-8.6913
▁ذکر	-8.69281
▁بورڈ	-8.69392
گر	-8.69402
▁اپ	-8.69441
▁توجہ	-8.69583
▁تحریک	-8.69672
▁ایکٹ	-8.69692
▁2012	-8.70047
,	-8.70061
▁متعلق	-8.7011
▁فیصلہ	-8.7019
▁تصور	-8.70291
پا	-8.70325
00	-8.70607
▁انجام	-8.70955
▁2014	-8.70966
▁ورلڈ	-8.71112
▁جولائی	-8.71263
▁جین	-8.71287
▁منعقد	-8.7149
▁کردیا۔	-8.71542
▁دی۔	-8.71999
▁ری	-8.7201
▁افواج	-8.7219
▁دسمبر	-8.7219
▁ٹو	-8.72339
▁افریقہ	-8.72346
ٹین	-8.7265
▁بغاوت	-8.72657
▁ناصر	-8.72814
k	-8.72849
▁گئی۔	-8.72934
▁آرٹ	-8.73039
▁سائنس	-8.73058
▁معیاری	-8.73063
▁مالی	-8.73092
▁پال	-8.73145
▁راست	-8.73237
▁آیا	-8.73344
al	-8.73406
▁محدود	-8.73441
▁رکھتا	-8.7345
▁معیار	-8.7346
▁مضبوط	-8.73505
▁کامیابی	-8.73874
یوں	-8.74029
اؤ	-8.74029
z	-8.74073
▁والوں	-8.74087
سٹر	-8.74192
▁براہ	-8.74393
▁روس	-8.74524
▁شادی	-8.7455
گا	-8.74688
▁سان	-8.74721
▁(19	-8.74772
▁ریاستی	-8.74822
▁خدمت	-8.74868
▁مت	-8.74904
]	-8.75003
▁رہتے	-8.75034
▁سبب	-8.75124
▁جارج	-8.75125
▁بنا	-8.75283
▁پتہ	-8.75348
▁داخل	-8.75675
▁عرصے	-8.7583
▁شخص	-8.7597
▁کلاسیکی	-8.75991
▁کرکے	-8.7602
▁S	-8.76067
رین	-8.76392
▁مارکیٹ	-8.76393
▁مدت	-8.76713
6	-8.76718
▁البم	-8.76923
▁کیڑے	-8.77129
▁پسند	-8.77157
دی	-8.77339
▁عالمی	-8.77468
▁مختصر	-8.77469
▁'	-8.7751
▁یونان	-8.77681
یم	-8.7791
▁ویژن	-8.77947
▁توسیع	-8.77947
اب	-8.77961
▁ممکنہ	-8.78029
▁ماڈل	-8.78077
کل	-8.78115
ص	-8.78226
▁تبدیلی	-8.78391
▁اتحاد	-8.78506
▁دفاع	-8.78689
▁بہتر	-8.78911
یل	-8.79025
▁زندہ	-8.79106
رس	-8.79166
▁تعلق	-8.79228
▁انقلاب	-8.79521
▁فوجیوں	-8.79716
▁2006	-8.79948
▁آس	-8.80269
▁خصوصی	-8.80324
▁ڈچ	-8.80339
▁پوپ	-8.80345
▁میکسیکو	-8.80786
▁دستخط	-8.80955
▁نومبر	-8.81125
▁یہودی	-8.81705
▁وے	-8.81885
▁نپولین	-8.81978
▁پیچھے	-8.81978
وک	-8.82014
▁تعریف	-8.8215
▁محفوظ	-8.82321
▁ہجرت	-8.82321
▁شاہی	-8.82371
▁علم	-8.82565
▁سمندری	-8.82701
▁پولیس	-8.82708
▁2015	-8.82839
▁جاپان	-8.83096
▁مصر	-8.83157
▁منصوبہ	-8.83359
▁کرے	-8.83376
▁رکھتے	-8.83539
▁قرون	-8.83708
▁جانوروں	-8.83724
سا	-8.83778
▁شرح	-8.84057
▁اسکولوں	-8.84089
▁ثقافتی	-8.84139
▁اوسط	-8.84231
▁چاہئے	-8.84612
▁حقوق	-8.84758
▁نقل	-8.84758
▁اوپر	-8.85022
▁مجموعی	-8.85022
▁صلاحیت	-8.85099
▁گرد	-8.85204
▁آہستہ	-8.85288
▁بیس	-8.8544
▁تھیٹر	-8.85516
▁دیر	-8.85586
▁فورس	-8.85644
▁ترین	-8.85697
▁A	-8.85714
▁راک	-8.8577
▁سائٹ	-8.85814
▁تسلیم	-8.85821
▁سیاہ	-8.85887
▁پودوں	-8.86
in	-8.86008
▁مستقل	-8.86178
▁آلات	-8.86192
▁انتخابات	-8.86234
ch	-8.86256
3	-8.86326
▁ویڈیو	-8.86331
b	-8.8642
▁نافذ	-8.86536
▁نتیجہ	-8.86536
بو	-8.86549
▁معاشرتی	-8.86716
▁بینڈ	-8.86869
▁گھروں	-8.8692
▁نیا	-8.8713
ra	-8.87403
▁تیزی	-8.87428
▁معیشت	-8.87437
▁میوزیم	-8.87437
ڑ	-8.87545
er	-8.87588
▁سامنا	-8.87619
▁دستیاب	-8.8773
▁وسط	-8.87915
▁ریڈیو	-8.88006
▁تباہ	-8.88257
▁حرارت	-8.88346
انا	-8.88356
▁کامیاب	-8.88394
▁تھیں۔	-8.88418
▁اوکلاہوما	-8.88529
▁بالآخر	-8.88529
▁جزائر	-8.88529
▁سکتی	-8.8854
▁سالانہ	-8.88981
رک	-8.89206
▁جزیرہ	-8.89264
▁سفید	-8.89264
▁نجی	-8.89288
▁انتظام	-8.89371
▁معاہدہ	-8.89448
le	-8.89454
▁لاطینی	-8.89488
مو	-8.89529
▁عرب	-8.8989
▁رپورٹ	-8.8999
▁پورے	-8.90192
▁خصوصیت	-8.90276
▁سابق	-8.90296
▁اعظم	-8.90376
▁جنہوں	-8.90377
▁پیداوار	-8.90379
▁2005	-8.90386
▁سابقہ	-8.90557
▁ہیڈ	-8.90615
▁ووٹ	-8.90653
▁دریا	-8.90742
▁جسم	-8.90835
/	-8.91336
▁قوم	-8.91389
▁گا۔	-8.91454
▁مخصوص	-8.915
▁فروری	-8.91505
▁گئیں	-8.9157
▁لینے	-8.91671
▁لگایا	-8.91718
▁بہترین	-8.91724
▁کورٹ	-8.91776
▁منظم	-8.91878
چی	-8.91928
وٹ	-8.92119
▁ساحل	-8.92197
▁قبول	-8.92237
▁کانگریس	-8.92449
▁گر	-8.92455
▁ہونا	-8.92486
▁بیک	-8.92803
▁می	-8.93003
پر	-8.93059
▁بڑھ	-8.93136
▁کاری	-8.93343
▁تجارت	-8.93345
▁رہنما	-8.93379
▁صحت	-8.93596
▁یہاں	-8.93677
f	-8.9369
d	-8.93694
▁تخلیق	-8.9373
▁کیں	-8.93766
▁مرکوز	-8.93789
نز	-8.93822
▁جے	-8.94
▁30	-8.94008
▁اول	-8.94115
شن	-8.94322
▁میڈیا	-8.944
▁ضروری	-8.94518
▁جنسی	-8.94551
▁چلتا	-8.9457
▁25	-8.94884
▁باوجود	-8.94952
▁قیمت	-8.94967
▁مقامات	-8.95018
▁کھیلوں	-8.95062
▁یافتہ	-8.95148
▁I	-8.95208
▁زبانوں	-8.9521
▁ہال	-8.95305
جو	-8.95347
▁ڈیل	-8.95357
▁عملی	-8.95453
▁ٹیوٹ	-8.95474
▁اقوام	-8.95933
شی	-8.96008
▁از	-8.96134
us	-8.96231
▁آواز	-8.96439
▁وائٹ	-8.96574
▁کافی	-8.96632
▁سرخ	-8.96756
▁لو	-8.96811
▁واضح	-8.96923
▁پل	-8.96939
▁پالیسی	-8.96963
▁جواب	-8.97005
▁ریلوے	-8.97122
▁جیت	-8.97269
وم	-8.97415
an	-8.97656
▁جنگی	-8.97762
S	-8.97883
▁ورژن	-8.97923
▁اندرونی	-8.97936
▁جاپانی	-8.98047
▁ڈیٹا	-8.98083
اک	-8.98178
مر	-8.98496
▁طریقوں	-8.98528
▁اکثریت	-8.98597
▁عدالت	-8.98639
▁کمپیوٹر	-8.98728
▁پرانے	-8.9873
سو	-8.98742
ائ	-8.98872
▁مسترد	-8.98933
▁2000	-8.9898
ar	-8.99217
9	-8.99225
▁ملکی	-8.9944
▁گئے۔	-8.99471
▁فیلڈ	-8.99488
▁باقی	-8.99703
▁اسٹیٹ	-8.99892
▁سامنے	-8.99954
▁زیر	-9.00228
▁انسٹی	-9.00239
▁آباد	-9.00281
▁الفاظ	-9.00364
▁برعکس	-9.00364
▁تنازعہ	-9.00364
▁فعال	-9.00364
▁گورنر	-9.00367
▁اطالوی	-9.00506
▁ڈیم	-9.00586
▁آئیڈل	-9.00621
▁نیچے	-9.00626
سک	-9.00655
▁بوسٹن	-9.0079
▁رہنے	-9.00801
▁ذیلی	-9.00814
▁قوانین	-9.00984
▁مجبور	-9.01192
▁اداروں	-9.01201
▁عائد	-9.014
▁دورہ	-9.01537
▁امریکن	-9.01608
▁آب	-9.01704
▁کھانے	-9.01825
0،000	-9.01867
▁P	-9.02026
▁پوسٹ	-9.02227
▁وابستہ	-9.02236
la	-9.02377
▁انتہائی	-9.02447
▁رائل	-9.02698
▁مقرر	-9.02998
re	-9.03149
▁مہم	-9.03163
▁کوڈ	-9.03169
▁حروف	-9.03291
▁ایشن	-9.03293
▁گھریلو	-9.03302
▁منظور	-9.03465
▁آن	-9.03592
▁حل	-9.03741
▁سن	-9.03861
▁فروغ	-9.03929
▁1990	-9.03938
▁سیریز	-9.0398
▁ایسوسی	-9.04143
▁آسٹریلیا	-9.04337
▁بجلی	-9.04357
▁آمدنی	-9.04371
▁ریڈ	-9.04519
▁لحاظ	-9.04571
جس	-9.04715
▁M	-9.04813
▁ہندوستانی	-9.0488
برگ	-9.05241
▁قتل	-9.05434
▁اڈے	-9.05654
▁فرق	-9.05799
پو	-9.05842
▁فارم	-9.05968
▁1970	-9.06096
50	-9.06143
▁آرڈر	-9.06182
▁حکم	-9.06223
▁فائدہ	-9.06305
C	-9.06378
▁ویئر	-9.06638
▁عمارت	-9.06734
▁ارد	-9.0679
on	-9.06816
▁فام	-9.06828
ھ	-9.06941
▁تنقید	-9.07158
▁ایسٹونیا	-9.07183
▁ترجمہ	-9.07183
▁ٹاپ	-9.07231
▁کریں	-9.07326
E	-9.07451
▁ولیم	-9.07452
یس	-9.07582
▁عیسائی	-9.07623
▁پائے	-9.0785
en	-9.08018
▁G	-9.08064
▁مسائل	-9.08071
▁حق	-9.08076
▁کرایا	-9.08368
▁جنس	-9.08415
▁ملکیت	-9.08593
▁سیل	-9.08617
▁واشنگٹن	-9.08739
▁پارلیمنٹ	-9.09187
▁رفتار	-9.09415
▁ہوگئی	-9.09488
انی	-9.09588
▁اشرافیہ	-9.09638
▁آنے	-9.09756
بل	-9.09781
▁ایسٹ	-9.09814
▁مارشل	-9.0987
▁سمندر	-9.09904
▁ہاور	-9.1001
r	-9.10093
▁حیاتیات	-9.10293
▁نشاندہی	-9.10319
▁9	-9.10333
▁سمیت	-9.10333
▁سپریم	-9.10334
▁دیئے	-9.10377
▁صارفین	-9.10562
▁وان	-9.10563
نو	-9.10628
▁پابندی	-9.10708
▁درخواست	-9.10775
▁ٹائمز	-9.10944
▁طریقے	-9.11004
▁سیٹ	-9.11131
▁ناکام	-9.11137
▁کیرولائنا	-9.11233
▁میدان	-9.11326
▁عثمانی	-9.11509
▁100	-9.11605
▁پوڈ	-9.11669
▁متبادل	-9.11693
▁بولنے	-9.11695
▁شمسی	-9.11929
▁پیشہ	-9.11945
▁کپ	-9.11963
با	-9.1199
جن	-9.12075
▁تلاش	-9.12156
▁کھو	-9.12237
▁گرما	-9.1229
▁اینٹینا	-9.1249
▁ساؤتھمپٹن	-9.1262
▁لانچ	-9.12854
▁پوزیشن	-9.13087
▁مردوں	-9.13141
▁بیونسے	-9.13353
▁ممبروں	-9.13399
▁آئزن	-9.13557
▁کیری	-9.13626
▁انکار	-9.13677
▁گرینڈ	-9.13734
▁رہائش	-9.13759
▁علاقائی	-9.13791
▁مشعل	-9.13791
▁ایونیو	-9.14033
▁کمانڈ	-9.14088
▁بندرگاہ	-9.14133
w	-9.14154
▁ڈبلیو	-9.14223
▁ملی	-9.14258
▁نصف	-9.14264
▁قریبی	-9.14372
▁گانے	-9.14382
یہ	-9.14395
▁ہوگئے	-9.14591
es	-9.1468
▁والد	-9.1488
ط	-9.14899
▁ہوئی۔	-9.14973
▁رسوخ	-9.14976
▁مصنوعات	-9.14979
▁کلاس	-9.15057
▁پھیل	-9.15152
▁کارکردگی	-9.15215
▁ہیوسٹن	-9.15216
▁سپر	-9.15339
▁ترتیب	-9.15455
▁واقعات	-9.15686
▁اٹلی	-9.15699
▁جیمز	-9.15717
▁بحری	-9.15842
گی	-9.16024
▁ٹیکس	-9.16083
▁باضابطہ	-9.16175
▁مقیم	-9.16175
▁نمائش	-9.16175
▁21	-9.16232
▁ہوئے۔	-9.16248
▁ترک	-9.16624
▁لہذا	-9.16659
▁عنوان	-9.16856
▁براعظم	-9.16901
▁جسمانی	-9.16961
▁بیئر	-9.16991
▁تحقیق	-9.17025
▁گرجا	-9.17157
▁2004	-9.17161
▁پیدائش	-9.17301
▁نارتھ	-9.17389
▁آسٹریا	-9.17389
▁سازی	-9.17456
▁معلومات	-9.17663
▁ماہر	-9.17669
▁سائنسی	-9.1778
▁ایجاد	-9.17881
▁صنعت	-9.17931
▁کوریا	-9.18046
▁آئرلینڈ	-9.18124
▁اسرائیل	-9.18257
▁ڈو	-9.18297
▁سخت	-9.18366
▁حوصلہ	-9.1837
▁چھوٹی	-9.18371
▁وار	-9.18379
▁بنائے	-9.18413
▁ییل	-9.18422
▁کور	-9.18521
▁حقیقت	-9.18617
▁دماغ	-9.18617
▁سرمایہ	-9.18625
▁نوٹ	-9.18809
▁چیف	-9.19019
▁بیکٹیریا	-9.19113
▁لائبریری	-9.19113
▁کرسکتے	-9.19113
▁تعلیمی	-9.19167
▁اسلامی	-9.19259
▁صوتی	-9.19293
▁ایپل	-9.19418
▁آگے	-9.19436
▁مقدار	-9.19611
▁دہلی	-9.19641
▁ڈسک	-9.19665
گن	-9.19711
▁انٹرنیٹ	-9.19865
▁آگ	-9.19911
▁روشن	-9.20026
غ	-9.20037
▁آ	-9.20062
▁اضافی	-9.20112
▁ووڈ	-9.2034
▁اسپین	-9.20417
ڈن	-9.20499
ٹیک	-9.20664
▁24	-9.20779
یئر	-9.20812
▁یہودیوں	-9.20903
▁گلی	-9.20909
▁میڈونا	-9.21122
زی	-9.21176
▁مسلسل	-9.21374
▁سائز	-9.21456
▁روک	-9.21497
▁عیسوی	-9.21884
▁کمیونٹی	-9.21935
▁مو	-9.21964
▁الزام	-9.22094
▁قیام	-9.2214
وف	-9.22387
▁پرندوں	-9.22396
▁جلد	-9.22406
▁پو	-9.22503
▁ایکس	-9.22588
▁زور	-9.22622
▁ہوسکتا	-9.22653
▁وطن	-9.22911
O	-9.22938
▁ایسا	-9.23113
▁گے	-9.23312
▁40	-9.23333
▁گرم	-9.23346
▁عروج	-9.23428
▁الیکٹرک	-9.2346
▁میزبانی	-9.23544
رن	-9.236
▁ویل	-9.23638
▁قذافی	-9.23688
▁ڈھانچے	-9.23688
▁سرحد	-9.23701
وری	-9.23744
▁فار	-9.23861
▁دس	-9.23922
▁کیے۔	-9.23936
▁شماری	-9.23948
▁ایڈ	-9.23982
▁بیرونی	-9.24036
▁آئے	-9.24089
▁گروہوں	-9.24092
▁نی	-9.24187
▁مربع	-9.2421
▁ٹاؤن	-9.2421
▁H	-9.24342
▁شمار	-9.24471
▁??	-9.24471
▁شراکت	-9.24471
▁اسٹیڈیم	-9.24473
ٹری	-9.2455
▁تبت	-9.24562
▁دیتی	-9.24584
is	-9.24665
B	-9.24676
▁منظوری	-9.24781
8	-9.24888
▁استدلال	-9.24997
▁سول	-9.25115
20	-9.25133
▁کیمپس	-9.25365
▁N	-9.25399
▁کارروائی	-9.25423
جیسے	-9.25479
▁پرتگالی	-9.25695
▁آرتھوڈوکس	-9.25791
▁پائی	-9.25803
▁بڑھتی	-9.25834
or	-9.2595
▁سیٹلائٹ	-9.26057
▁خانہ	-9.26094
▁رات	-9.26149
▁تجربہ	-9.26323
M	-9.26364
▁پڑا	-9.26486
▁ایگزیکٹو	-9.26591
▁ڈیجیٹل	-9.26592
▁ماحولیاتی	-9.26638
▁تیز	-9.26673
▁کاموں	-9.26746
▁فریڈرک	-9.26859
▁پرتگال	-9.26913
▁پار	-9.26975
▁پورٹ	-9.27097
▁لگانے	-9.27156
اد	-9.27166
ہا	-9.27198
▁F	-9.2726
نڈ	-9.27345
▁سات	-9.27364
یک	-9.27388
ائڈ	-9.27696
گل	-9.27769
▁ڈویژن	-9.27842
▁علاج	-9.27938
چر	-9.28094
▁گرین	-9.28194
▁معاملات	-9.2821
▁°	-9.2825
▁گیم	-9.28258
▁اوقات	-9.28483
▁عنصر	-9.28483
-1	-9.28665
▁داری	-9.28713
▁منگ	-9.28755
▁نانجنگ	-9.28756
▁1980	-9.28774
▁ریکارڈنگ	-9.28813
▁بارش	-9.28872
▁ڈگری	-9.29013
▁ڈیٹرائٹ	-9.2903
▁رسائی	-9.29034
▁ممبر	-9.29167
▁اثرات	-9.2918
▁ہار	-9.29297
▁زلزلے	-9.29305
▁دباؤ	-9.29305
▁روایت	-9.29329
▁نامزد	-9.29569
▁تیسری	-9.2959
▁بشمول	-9.29604
▁چارلس	-9.29861
▁آرمینیائی	-9.29872
وز	-9.29875
▁کتے	-9.29881
ونگ	-9.29927
▁ام	-9.29966
▁بیماری	-9.29979
▁منتقلی	-9.30143
ta	-9.30278
▁گو	-9.30405
▁اقسام	-9.30411
▁انحصار	-9.30411
ئ	-9.30498
▁فون	-9.30531
▁نشان	-9.30564
▁رو	-9.30597
▁البرٹ	-9.3071
▁گیس	-9.30843
▁کرسکتا	-9.30969
▁ٹائم	-9.30971
▁آٹھ	-9.30974
▁پاور	-9.30979
▁ذاتی	-9.31003
▁بڑھا	-9.31037
▁تیل	-9.31089
اف	-9.31162
▁چی	-9.31246
▁ضلع	-9.31249
▁افزائی	-9.3153
▁مرکب	-9.31766
▁روڈ	-9.32003
▁E	-9.3204
▁اگلے	-9.32096
▁بحران	-9.32131
▁پہنچ	-9.32133
▁پولی	-9.32187
▁حالت	-9.32635
▁طالب	-9.32661
▁مواصلات	-9.32661
دار	-9.327
▁اصلاحات	-9.32705
▁گروپوں	-9.32821
ڈین	-9.33096
▁1960	-9.33246
▁سماجی	-9.33519
▁فلسفہ	-9.33519
▁فل	-9.33537
▁کھانا	-9.33537
st	-9.33727
li	-9.33745
▁سربراہ	-9.33796
▁سوئٹزرلینڈ	-9.33806
▁صنف	-9.33806
▁نما	-9.33831
▁پہنچا	-9.33982
▁حالیہ	-9.34102
▁مردم	-9.34189
▁پلے	-9.34211
در	-9.34308
لس	-9.34336
یڈ	-9.34355
▁اظہار	-9.34383
▁پیٹنٹ	-9.34407
نک	-9.34468
▁K	-9.3463
▁بٹ	-9.34672
▁بری	-9.34817
▁آؤٹ	-9.34964
▁اجزاء	-9.34964
▁ہدایت	-9.34964
▁زون	-9.35244
▁دعویٰ	-9.35257
▁بیونسی	-9.3539
▁2003	-9.35564
یر	-9.35565
▁بچے	-9.35618
▁تانبے	-9.35841
▁انٹر	-9.36004
▁بننے	-9.3616
▁سافٹ	-9.36217
ro	-9.3622
▁شپ	-9.36421
▁الحال	-9.3643
▁اچھی	-9.3643
▁ہوسکتی	-9.3643
▁محل	-9.36431
▁ملتی	-9.36524
▁قواعد	-9.36726
▁ایران	-9.36788
R	-9.3691
▁صومالی	-9.36942
▁حکمران	-9.37004
▁موجودگی	-9.37059
▁مشین	-9.37095
▁مرد	-9.3714
ri	-9.37285
▁ماحول	-9.3732
▁اطلاع	-9.3732
▁فراہمی	-9.37336
▁آرمی	-9.37366
▁ڈال	-9.37549
▁غلط	-9.37564
▁کاغذ	-9.37573
40	-9.37754
▁ٹور	-9.37852
▁ورزی	-9.37934
▁50	-9.37975
▁سالہ	-9.38015
▁یونٹ	-9.38164
فورڈ	-9.38225
ne	-9.38325
▁کراس	-9.38358
▁بنائی	-9.38513
x	-9.38517
▁دیکھ	-9.38517
▁اسمبلی	-9.3852
▁اپنایا	-9.38571
جا	-9.38632
▁میچ	-9.38894
یز	-9.38896
▁مال	-9.38949
▁ہان	-9.39023
▁پرست	-9.39102
▁عدم	-9.39125
▁فیڈرل	-9.39128
▁نظریات	-9.39178
▁اعداد	-9.39429
▁رکاوٹ	-9.39429
▁سامان	-9.39439
انے	-9.39498
▁کمیٹی	-9.39555
▁جہازوں	-9.39605
ڈل	-9.39764
▁فین	-9.39975
▁اتفاق	-9.40039
▁شدید	-9.40039
▁ہمیشہ	-9.40039
▁ترمیم	-9.4004
▁مظاہرہ	-9.4005
یکل	-9.40194
▁پسندی	-9.40198
80	-9.40269
وب	-9.40354
▁جینیاتی	-9.40391
▁میلبورن	-9.40658
▁حفاظت	-9.40711
▁کھولا	-9.40732
▁بشپ	-9.40759
▁شی	-9.4083
▁پلائیماؤتھ	-9.40963
▁ملا	-9.41052
▁بچ	-9.41123
ارڈ	-9.41201
▁رہائشی	-9.41234
▁ہلاک	-9.4129
فر	-9.41463
ض	-9.41567
▁مزاحیہ	-9.41583
▁ٹیسٹ	-9.41633
▁میں۔	-9.41716
▁گانا	-9.41829
▁عناصر	-9.41894
▁مجموعہ	-9.41894
▁نائیجیریا	-9.41894
▁مریم	-9.41932
▁معمولی	-9.41993
▁چو	-9.42025
▁مزاحمت	-9.42066
▁پن	-9.42069
▁گئیں۔	-9.42137
▁مور	-9.42153
▁حقیقی	-9.42207
پس	-9.42226
N	-9.42259
▁فارمیٹ	-9.42334
کھ	-9.42486
▁اسکاٹ	-9.42528
▁موٹر	-9.42677
▁ملاقات	-9.42835
▁چلنے	-9.42847
ولا	-9.42848
▁ہوم	-9.42887
▁شیل	-9.42946
▁قرض	-9.43024
▁پروٹسٹنٹ	-9.43131
th	-9.43134
▁شاید	-9.43151
▁تارکین	-9.43152
▁1950	-9.4318
▁روکنے	-9.432
▁کاروبار	-9.43216
▁آڈیو	-9.43467
▁خاتمے	-9.43467
▁خشک	-9.43467
▁وجود	-9.43467
▁میگزین	-9.43468
▁ادارہ	-9.43482
▁لائٹ	-9.43493
▁ہوں	-9.4366
▁لیا۔	-9.43707
▁تربیت	-9.43787
لینڈ	-9.43789
▁کمزور	-9.43803
لز	-9.43901
جر	-9.44003
▁تعین	-9.44156
ئر	-9.44232
لین	-9.44276
▁مارک	-9.4452
▁پین	-9.44569
▁بھیجا	-9.44674
▁برک	-9.44705
▁دفتر	-9.44742
▁طوفان	-9.44742
▁توقع	-9.44743
▁چیک	-9.44785
سر	-9.44847
▁بینک	-9.44999
شا	-9.45021
▁انسانوں	-9.45049
▁کنگ	-9.45099
▁خیالات	-9.4526
▁مصنف	-9.45341
▁تصویر	-9.45387
▁نتائج	-9.45387
▁پتھر	-9.45389
ویل	-9.45524
▁ہارڈ	-9.45675
▁رکھتی	-9.45724
▁مصری	-9.45743
▁صنعتی	-9.45804
P	-9.46007
▁رقم	-9.46035
▁جذبات	-9.46042
▁زی	-9.46064
▁میئر	-9.4609
ام	-9.46199
▁اقتدار	-9.46361
▁انیسویں	-9.46361
▁تعاون	-9.46361
▁منصوبے	-9.46361
▁ٹکسن	-9.46367
▁کپاس	-9.46399
پل	-9.46469
▁امن	-9.46674
▁موثر	-9.46687
▁بلکہ	-9.46688
انگ	-9.46761
▁موضوع	-9.46884
دا	-9.46898
▁T	-9.46901
▁رکن	-9.46932
▁سوسائٹی	-9.47015
▁فہرست	-9.47015
▁پیچیدہ	-9.47015
▁کنسرٹ	-9.47016
▁R	-9.47049
▁B	-9.47167
▁سنگل	-9.47196
ؤں	-9.47316
▁شکاری	-9.47341
▁غلبہ	-9.47344
▁ٹینیسی	-9.47346
▁زنک	-9.47374
▁حمل	-9.47485
▁دعوی	-9.47672
▁اٹلانٹک	-9.47674
▁پھانسی	-9.47674
▁خ	-9.47739
مان	-9.4777
D	-9.4781
▁اخبار	-9.47884
▁چیت	-9.4803
▁پیروی	-9.48068
▁2001	-9.48104
▁تحفظ	-9.48213
▁ہٹ	-9.4828
▁جیسی	-9.48281
▁23	-9.48317
▁ٹکنالوجی	-9.48338
یکس	-9.48472
▁مخالف	-9.48547
▁عمارتوں	-9.4856
▁بادشاہی	-9.4857
30	-9.48645
▁احتجاج	-9.48671
▁الزبتھ	-9.48671
▁علیحدگی	-9.48671
▁بلیک	-9.48736
▁جانور	-9.48823
▁رجحان	-9.48854
▁شہریوں	-9.48866
▁فضائی	-9.48927
زا	-9.48928
نر	-9.48946
▁ہوسکتے	-9.49005
▁میامی	-9.49016
▁لوئس	-9.49017
▁دولت	-9.49039
▁حالات	-9.49044
▁لہر	-9.49061
▁با	-9.49197
▁ہوگئے۔	-9.49213
ٹنگ	-9.49317
▁اسٹور	-9.49321
▁مینڈولین	-9.49341
▁رینج	-9.49413
▁پہاڑی	-9.49495
▁جزوی	-9.49507
▁دوم	-9.4952
▁وال	-9.49674
▁مقدس	-9.49678
▁دلچسپی	-9.49699
▁آلہ	-9.49731
▁بناتا	-9.49764
▁پلیٹ	-9.49796
▁پوری	-9.49809
▁اہمیت	-9.49909
▁سوچ	-9.49927
▁نوجوان	-9.49987
▁معاشرے	-9.50016
▁رابرٹ	-9.50018
▁دریائے	-9.50026
اٹ	-9.50115
▁فنکاروں	-9.50133
▁متن	-9.50203
▁بم	-9.50301
لیٹ	-9.50331
نج	-9.50333
وین	-9.50347
▁رشتہ	-9.50354
▁میٹروپولیٹن	-9.50354
▁نگرانی	-9.50354
at	-9.50397
▁ویب	-9.50404
te	-9.50538
▁مالک	-9.50639
ٹم	-9.50745
ئن	-9.50796
▁امریکیوں	-9.50812
▁انٹرنیشنل	-9.51036
▁فیسٹیول	-9.51036
▁ڈائریکٹر	-9.51036
▁ہنری	-9.51102
▁درج	-9.51122
▁والدہ	-9.51156
▁لکھی	-9.51255
▁کیریئر	-9.51342
▁یونیورسل	-9.51378
▁گوئی	-9.51409
▁اولمپک	-9.5152
▁آپریشن	-9.51623
▁رد	-9.51721
▁کاتالان	-9.51722
▁یورینیم	-9.51722
▁ایڈورڈ	-9.51727
▁پولینڈ	-9.51749
▁ڈائی	-9.51773
▁بڑھانے	-9.51787
▁جاسکتی	-9.52067
انہ	-9.52068
▁سرگرمی	-9.52088
▁سورج	-9.52093
▁ڈیاگو	-9.52138
it	-9.52301
▁ہل	-9.5235
▁ٹریک	-9.52374
▁ذرائع	-9.52413
▁مسئلہ	-9.52413
▁رہتا	-9.52437
▁ونڈوز	-9.52443
▁لیبیا	-9.5245
▁سرما	-9.52515
▁پاپ	-9.5258
شین	-9.526
لون	-9.52643
▁سبز	-9.52723
▁اشاعت	-9.5276
▁ادارے	-9.5276
▁طے	-9.5277
▁III	-9.52771
▁ادب	-9.52862
▁بحالی	-9.5296
▁جذب	-9.53057
▁سیئٹل	-9.53109
▁شرکت	-9.53109
انو	-9.53144
▁حملوں	-9.53147
▁لاگو	-9.53174
▁گاہ	-9.53345
▁اڈہ	-9.53458
▁کینے	-9.53501
ائن	-9.53514
▁بحر	-9.5377
▁اصول	-9.53794
▁مستحکم	-9.53809
ur	-9.53886
▁پب	-9.53913
14	-9.53922
▁الاسکا	-9.54161
▁چند	-9.54161
▁اونچائی	-9.5417
ic	-9.54183
▁مند	-9.54192
▁ترجیح	-9.54262
▁وقف	-9.5444
▁چاہئے۔	-9.54456
▁موزیک	-9.54501
▁مثبت	-9.54515
▁منحصر	-9.54515
▁شیشے	-9.54515
▁چنگ	-9.5457
▁ماہرین	-9.54595
▁ہوگئی۔	-9.54745
▁خط	-9.54787
▁تھامس	-9.54828
▁انفرادی	-9.54875
▁پریس	-9.55025
ائٹ	-9.5512
▁آرمینیا	-9.55206
▁باعث	-9.55225
▁تصدیق	-9.55225
▁ڈارون	-9.55226
▁ہائیڈروجن	-9.5523
▁فوٹو	-9.55326
▁دل	-9.55328
▁ہائیک	-9.5535
کار	-9.55483
▁مشن	-9.55585
G	-9.55589
ni	-9.55646
▁بانی	-9.55658
▁پورا	-9.55674
▁درد	-9.55948
▁عوام	-9.55952
ٹل	-9.55955
▁ایسی	-9.56001
▁کمیشن	-9.56008
▁تاج	-9.56033
▁چیمپئن	-9.56095
as	-9.56173
سین	-9.562
▁بھاری	-9.563
▁غالب	-9.563
▁مسلح	-9.563
▁کردی	-9.56319
▁حکمت	-9.5643
▁راستے	-9.56472
▁متعلقہ	-9.5649
▁واقعہ	-9.56558
او	-9.56634
T	-9.56675
▁انتظامیہ	-9.56737
وان	-9.56752
▁لایا	-9.56764
▁26	-9.56771
▁ایوارڈ	-9.56824
▁شام	-9.56902
وڈ	-9.57005
▁بحیرہ	-9.57024
▁28	-9.57086
▁سمت	-9.57183
▁امکان	-9.57274
▁کمانڈر	-9.57297
▁لیبل	-9.57298
▁وو	-9.57371
▁بارسلونا	-9.57387
▁صوبے	-9.57387
▁معاصر	-9.57387
▁غور	-9.57391
▁چلا	-9.57416
▁(18	-9.57477
▁قبرص	-9.57489
▁ما	-9.57498
▁علامت	-9.5761
▁کاپی	-9.57674
▁مطالبہ	-9.57752
▁پریمیئر	-9.57753
▁کالونی	-9.5777
▁یونیورسٹیوں	-9.57815
▁فوری	-9.57911
▁2002	-9.58156
▁گے۔	-9.58327
▁آسان	-9.58336
▁حتمی	-9.58486
▁ہتھیار	-9.58488
▁22	-9.58553
▁چارٹر	-9.58593
▁نیز	-9.58614
▁بک	-9.5869
▁سم	-9.58742
▁عارضی	-9.58855
▁منظر	-9.58855
lo	-9.58866
▁برونکس	-9.58868
ارا	-9.59028
اری	-9.59038
▁ملتا	-9.59144
▁پیمائش	-9.59226
▁چونکہ	-9.59226
▁نشریات	-9.59228
▁بناتے	-9.59285
▁مخالفت	-9.59313
▁ہٹا	-9.59348
▁تکنیکی	-9.59407
▁برن	-9.59531
▁اعزاز	-9.59597
▁ماخوذ	-9.59597
▁ڈیپارٹمنٹ	-9.59597
▁یسوع	-9.59597
▁ایشیاء	-9.59599
▁پبلک	-9.59604
▁نشر	-9.59604
▁یاد	-9.59673
فا	-9.59828
▁عقیدے	-9.5997
▁سگنل	-9.59971
v	-9.60012
▁خواہش	-9.60345
▁کارپوریشن	-9.60345
▁خطرے	-9.60345
▁یقین	-9.60386
▁ہوٹل	-9.60396
▁ریلیز	-9.60458
▁ایسے	-9.60555
▁خارج	-9.60641
▁شراب	-9.60722
▁لمبائی	-9.60728
▁سزا	-9.60736
ینٹ	-9.60737
▁ریلے	-9.60799
ٹک	-9.61073
▁وہاں	-9.61081
▁پذیر	-9.61098
▁کثیر	-9.61098
▁پولش	-9.61153
▁بالغ	-9.6117
رہ	-9.61186
ریٹ	-9.61211
▁کتوں	-9.61477
▁60	-9.61725
▁نسبتا	-9.61884
▁عکاسی	-9.61894
منٹ	-9.61912
▁ممبران	-9.61922
▁ریپبلکن	-9.61994
▁ماسٹر	-9.62031
▁فو	-9.62053
▁ریکارڈز	-9.62072
▁ماہ	-9.62185
▁معنی	-9.62239
▁لبرل	-9.62239
▁شکاگو	-9.6224
ہر	-9.62252
▁حیاتیاتی	-9.62282
ہی	-9.62304
▁شکلوں	-9.62353
▁کمپنیوں	-9.62383
ڈس	-9.62454
13	-9.62482
▁گنی	-9.62596
▁مخفف	-9.62622
▁آرسنل	-9.62622
▁برما	-9.62644
▁انسان	-9.62755
▁آئینی	-9.62868
زو	-9.62911
32	-9.62939
▁ضم	-9.62975
▁فلوریڈا	-9.63007
▁رچمنڈ	-9.63007
▁تیسرا	-9.63016
▁وادی	-9.63038
▁وین	-9.6305
▁اسکور	-9.63275
▁پٹ	-9.63321
▁زبانیں	-9.63335
▁مشکل	-9.63347
▁زمینی	-9.63371
▁اشارہ	-9.63393
▁موازنہ	-9.63393
▁کنونشن	-9.63393
▁حدود	-9.6341
▁پیٹر	-9.63417
▁بلین	-9.63606
18	-9.63627
▁بعض	-9.6378
▁حیدرآباد	-9.6378
▁قرآن	-9.6378
▁تخت	-9.6378
▁اقدامات	-9.63803
▁شاخ	-9.64114
▁گارڈ	-9.64147
▁ٹری	-9.64164
▁جاسکے۔	-9.6428
▁تبدیلیوں	-9.64363
▁غلاموں	-9.64494
▁بحث	-9.6456
▁دوسروں	-9.64561
▁1940	-9.64587
▁اضافے	-9.64952
▁مرحلے	-9.64952
▁پروجیکٹ	-9.64952
▁آٹھویں	-9.64952
▁کانفرنس	-9.65249
▁سائیکل	-9.65253
▁درمیانی	-9.6529
▁محسوس	-9.65346
▁کھیلا	-9.6544
▁خیالی	-9.65488
لے	-9.65489
اور	-9.65511
▁پہاڑوں	-9.65554
▁حال	-9.6562
▁بس	-9.65621
زر	-9.65631
▁ہتھیاروں	-9.65739
▁احاطہ	-9.65741
▁شعبے	-9.65741
▁قبائل	-9.65808
▁لنک	-9.65839
▁پول	-9.65853
▁کش	-9.66111
▁آئرش	-9.66138
▁تناسب	-9.66138
▁معاہدوں	-9.66138
▁ہسپتال	-9.66138
▁27	-9.66151
آ	-9.66202
▁V	-9.6631
▁خراب	-9.66339
▁ور	-9.66368
▁ادویات	-9.66537
▁برف	-9.66543
▁ایجنسی	-9.66569
ائز	-9.66656
▁ریس	-9.66702
▁تقریر	-9.66936
▁محمد	-9.66936
▁طرز	-9.6694
▁بیٹے	-9.66942
▁دان	-9.67096
-19	-9.67111
▁سنسکرت	-9.6716
▁سنبھال	-9.6717
ہن	-9.67261
▁پرو	-9.67352
لڈ	-9.67422
▁آفس	-9.67579
▁مضامین	-9.67741
▁بردار	-9.67744
▁لیبر	-9.67761
لٹ	-9.67952
یٹ	-9.6799
ia	-9.68037
▁فائنل	-9.68117
▁ثبوت	-9.68146
F	-9.68345
▁فائر	-9.68459
ٹیل	-9.68466
ایک	-9.68486
▁جھیل	-9.68554
▁ہزار	-9.68594
▁چلانے	-9.68601
اتی	-9.68681
▁ممکن	-9.68881
▁اشیاء	-9.68961
▁اکیڈمی	-9.68961
▁تجزیہ	-9.68961
▁جغرافیائی	-9.68961
▁ہیڈکوارٹر	-9.68961
95	-9.68972
▁ہیلینا	-9.68998
لیس	-9.6901
▁واٹر	-9.69045
▁رائٹ	-9.69192
▁تیسرے	-9.69371
▁سیکیورٹی	-9.69371
▁مناسب	-9.69371
▁پچھلے	-9.69371
▁کمیونسٹ	-9.69414
▁ملازمت	-9.6944
▁یقینی	-9.69738
▁مداخلت	-9.69782
▁یورو	-9.69808
▁گی۔	-9.69849
مک	-9.69922
▁آرٹسٹ	-9.69973
▁کاروباری	-9.7011
▁جانچ	-9.70116
▁مسلم	-9.70149
▁باشندوں	-9.70195
▁رویے	-9.70196
▁جوہری	-9.70199
لن	-9.70354
▁فیصلے	-9.7061
▁پرندے	-9.7061
▁چھوٹا	-9.70611
▁سلوک	-9.70614
▁فریم	-9.708
▁لباس	-9.71027
▁برابر	-9.71036
78	-9.71052
▁ٹیکنالوجی	-9.71241
34	-9.71256
um	-9.71416
▁سلسلے	-9.71445
▁شوارزنیگر	-9.71445
▁فاصلے	-9.71445
▁تقریب	-9.71693
▁اندازہ	-9.71697
ولوجی	-9.71801
▁ہوگا	-9.71864
▁جزیروں	-9.71866
▁لقب	-9.71866
▁بائبل	-9.71871
▁اختلافات	-9.7188
▁1991	-9.71883
▁تیاری	-9.71912
▁مٹی	-9.72086
▁لارڈ	-9.72111
▁جم	-9.72178
▁ذخیرہ	-9.72288
64	-9.72317
شر	-9.72317
▁O	-9.7245
پٹ	-9.72519
▁برازیل	-9.72642
▁اسٹار	-9.7266
▁باقاعدہ	-9.72711
▁تخمینہ	-9.72711
▁دکھایا	-9.72746
▁جینوم	-9.72749
ریا	-9.72775
▁مون	-9.72894
▁تبتی	-9.72989
85	-9.73003
▁صحرا	-9.73137
▁وزارت	-9.73137
رون	-9.73149
▁ڈاکٹر	-9.73225
▁de	-9.73267
▁خاندانوں	-9.73313
از	-9.73378
▁ٹاور	-9.73387
▁فلپ	-9.73389
▁80	-9.73427
▁پڑتا	-9.73489
ti	-9.73534
▁ارکان	-9.73564
▁میڈیکل	-9.73571
بن	-9.73618
▁اسلام	-9.73655
▁گن	-9.7372
▁پنک	-9.73747
سکی	-9.73984
▁زراعت	-9.73993
▁سلسلہ	-9.73993
▁متحرک	-9.73993
▁پانچویں	-9.73994
▁ایشیائی	-9.74008
▁خون	-9.74017
65	-9.74087
▁عیسائیت	-9.74146
▁لائسنس	-9.74327
▁کوششوں	-9.74358
▁گھنٹے	-9.74424
▁لکھے	-9.74445
▁وائی	-9.74468
▁نائٹ	-9.74611
▁آرٹس	-9.74673
مب	-9.74786
▁ٹرین	-9.74873
▁صومالیہ	-9.74974
▁صدارتی	-9.75015
الی	-9.75066
▁نیپچون	-9.75292
▁بشریات	-9.75292
▁ساؤتھ	-9.75292
▁ورانہ	-9.75304
▁1930	-9.75319
▁انڈیا	-9.75428
▁D	-9.75457
▁بحال	-9.75478
▁ترکی	-9.75578
▁سلاو	-9.75684
▁حرکت	-9.75729
▁پرواز	-9.75749
▁فورسز	-9.75794
▁گریٹ	-9.75893
▁ہوگیا	-9.76107
لک	-9.76109
ol	-9.76132
▁ساز	-9.76151
▁زرعی	-9.76167
▁غلام	-9.76432
▁90	-9.76527
▁اسپیلبرگ	-9.76608
▁تحلیل	-9.76608
▁شہزادہ	-9.76608
▁محکمہ	-9.76608
▁مختار	-9.76608
▁مہارت	-9.76608
▁وجوہات	-9.76608
▁نیوز	-9.76619
▁مصروف	-9.76634
▁اٹھایا	-9.76651
برٹ	-9.76752
ود	-9.76849
▁نوآبادیاتی	-9.76859
▁بہن	-9.76962
os	-9.76997
se	-9.77021
▁تبادلہ	-9.7705
▁طبقے	-9.7705
▁واپسی	-9.77109
ئس	-9.77141
60	-9.77175
ma	-9.77194
▁لگا	-9.77224
▁سلی	-9.77418
▁تشریح	-9.77495
▁منافع	-9.77495
▁مہینے	-9.77495
▁ہیم	-9.77516
▁والدین	-9.7758
▁نشانہ	-9.77623
ئے	-9.77656
▁خریدا	-9.77714
▁لاس	-9.7784
▁ریاضی	-9.77935
▁مالیاتی	-9.7796
▁رہا۔	-9.78018
▁جیتنے	-9.78032
▁ایبی	-9.78241
▁بھال	-9.7839
▁رچرڈ	-9.7839
▁وسائل	-9.78393
▁خطرہ	-9.78397
فیل	-9.78402
▁صدیوں	-9.78551
▁پری	-9.78614
▁پڑوس	-9.78682
ha	-9.78703
▁لفٹ	-9.78736
وو	-9.78773
70	-9.78816
X	-9.7884
▁ریزرو	-9.78842
نیل	-9.78879
H	-9.79063
el	-9.791
▁مستقبل	-9.79293
▁ممتاز	-9.79293
▁مساوی	-9.79295
پور	-9.79332
▁ایڈیشن	-9.79333
▁امیر	-9.79334
na	-9.7934
25	-9.79354
▁مصنفین	-9.79357
یکا	-9.79425
10	-9.79428
ائل	-9.79468
▁اسپ	-9.79471
▁سونے	-9.79481
▁آہنگی	-9.79522
no	-9.79605
U	-9.79607
▁ڈے	-9.79634
▁عورت	-9.79747
▁منصوبوں	-9.79747
▁کیلنڈر	-9.79748
▁لیزر	-9.79804
▁ڈین	-9.79843
▁تحقیقات	-9.79957
▁اپیل	-9.80147
▁پروڈیوسر	-9.80204
▁یادگار	-9.80207
▁الپس	-9.80245
▁باکس	-9.8025
▁انعام	-9.80295
▁U	-9.80306
▁کشی	-9.80455
کٹ	-9.80461
▁دیکھی	-9.8056
▁کارل	-9.80561
▁کہانی	-9.80605
وپ	-9.80626
▁لاج	-9.80655
▁برقی	-9.80663
▁نمودار	-9.80666
to	-9.80695
▁آتا	-9.80741
▁لوک	-9.80769
un	-9.81036
▁متحد	-9.81043
ā	-9.81123
▁سوئس	-9.81146
▁کہتے	-9.81147
▁اپولو	-9.81154
▁پھیلاؤ	-9.81158
▁پہلو	-9.81188
▁پہنچنے	-9.8119
یسی	-9.81194
▁کھلاڑی	-9.81219
▁لیون	-9.81272
▁ڈیوڈ	-9.8131
▁دہ	-9.81389
زن	-9.8144
▁ہزاروں	-9.8154
▁نظم	-9.81586
▁کیتھیڈرل	-9.81586
▁1997	-9.816
▁بنے	-9.81615
▁جنگوں	-9.81656
▁L	-9.81671
روں	-9.81695
12	-9.81727
▁نامی	-9.81841
ng	-9.81879
▁گول	-9.82029
▁ارتقاء	-9.82051
▁مشق	-9.82051
▁سروے	-9.82052
ٹز	-9.82149
▁سینڈ	-9.82219
▁روٹ	-9.82278
38	-9.82295
▁دوست	-9.82308
▁پلانٹ	-9.82308
▁ایوارڈز	-9.82315
▁تکنیک	-9.82392
▁ایٹ	-9.82414
▁انسانیت	-9.82434
▁500	-9.82472
▁مشاہدہ	-9.82519
▁والنسیا	-9.82519
▁پودے	-9.82519
ولی	-9.82523
▁دائرہ	-9.8257
▁کان	-9.82634
ھی	-9.8288
مون	-9.82884
ce	-9.82969
▁عقائد	-9.82988
▁قابو	-9.82988
▁مساوات	-9.82988
▁زوال	-9.82991
▁پناہ	-9.82994
▁1920	-9.83025
▁بلڈنگ	-9.83031
▁خارجہ	-9.83088
99	-9.83148
68	-9.83212
▁نیومن	-9.83264
▁اتحادی	-9.83333
▁بادشاہت	-9.83373
▁افسران	-9.83484
▁آسٹریلیائی	-9.83503
▁ویسٹرن	-9.83511
▁خانے	-9.83525
▁ڈرائیو	-9.83683
▁ادبی	-9.83807
▁تعدد	-9.83934
▁منسوخ	-9.83934
▁رائے	-9.83987
▁بلب	-9.83992
▁لیڈ	-9.84
▁کاروں	-9.84089
▁ہندو	-9.84107
▁نوآبادیات	-9.8414
▁بولیوں	-9.84295
▁فاتح	-9.84364
▁مندر	-9.84394
▁لیس	-9.84407
▁معروف	-9.8441
▁کثرت	-9.8441
▁ہفتہ	-9.8441
▁بیسویں	-9.8441
▁وولٹیج	-9.84411
▁انجینئرنگ	-9.84472
▁پرانی	-9.84481
▁عربی	-9.84716
▁کینن	-9.84772
▁پرستی	-9.84822
ونی	-9.84867
▁انٹارکٹیکا	-9.84888
▁چاہتا	-9.84888
▁ٹرمینل	-9.84889
▁پوپر	-9.84899
▁ایپلی	-9.84922
▁مثالیں	-9.84993
▁برادری	-9.85001
سٹی	-9.85033
▁31	-9.85056
L	-9.85073
▁راستہ	-9.85133
▁ایوان	-9.85144
▁35	-9.85188
لہ	-9.85217
▁کھلاڑیوں	-9.8527
▁تعینات	-9.85289
▁ٹرانس	-9.85352
ذ	-9.85359
▁اریٹیریا	-9.85369
▁خفیہ	-9.85369
▁1998	-9.85387
▁اسٹون	-9.85389
▁سڑک	-9.85403
▁روح	-9.85419
▁ڈالا	-9.85437
▁درجے	-9.85474
▁ناکامی	-9.85575
ter	-9.85622
33	-9.85662
▁فر	-9.85681
▁مطالعے	-9.85852
▁W	-9.85872
▁ناول	-9.85882
ڈور	-9.85976
▁تنظیموں	-9.86112
90	-9.86143
▁برمودا	-9.86338
▁ثابت	-9.86338
▁خالص	-9.86338
▁عطیہ	-9.86338
▁چاہتے	-9.86338
▁طاقتوں	-9.86346
▁جائزہ	-9.86372
▁بانڈ	-9.86393
مس	-9.86412
▁70	-9.86418
▁ساتھ۔	-9.86452
▁میٹرو	-9.86505
▁سست	-9.86669
▁کیں۔	-9.86718
▁چینل	-9.8678
▁تسلسل	-9.86826
▁تہذیب	-9.86826
▁جرائم	-9.86826
▁پروفیسر	-9.86826
▁اخراجات	-9.86856
▁چارلسٹن	-9.86867
تر	-9.8688
▁رسم	-9.87115
▁ریل	-9.87161
یگ	-9.87234
▁شمولیت	-9.87316
▁اسکوائر	-9.87316
▁وصول	-9.87316
▁کریڈٹ	-9.87316
▁کیمیائی	-9.87319
▁پک	-9.87331
▁گرمی	-9.87354
نین	-9.87364
59	-9.87629
▁مارا	-9.87652
▁بش	-9.87666
▁سینیٹ	-9.8773
چا	-9.87805
▁امپیریل	-9.87808
▁فاؤنڈیشن	-9.87814
▁بدعنوانی	-9.87872
▁ٹن	-9.8788
me	-9.87881
▁درخت	-9.87936
یئس	-9.87948
▁اختیارات	-9.87969
▁200	-9.88001
ٹیو	-9.88027
V	-9.88052
▁جیک	-9.88211
▁درست	-9.88293
لنگ	-9.88295
▁اجلاس	-9.88303
▁اعتماد	-9.88303
▁ہفتے	-9.88303
▁یوٹیوب	-9.88303
▁منفی	-9.8831
▁جیتا	-9.88318
▁1989	-9.8832
▁دیکھنے	-9.8837
▁تعمیراتی	-9.88383
42	-9.88484
▁نرم	-9.88505
یف	-9.88524
43	-9.88558
▁سربراہی	-9.88737
▁تجدید	-9.88803
▁بہار	-9.88803
▁روزانہ	-9.88808
▁عہدے	-9.8884
▁دیہی	-9.88959
ca	-9.89058
▁رومی	-9.89061
ای	-9.89084
▁کہنا	-9.89168
امی	-9.89247
▁آمد	-9.89268
▁صورت	-9.89301
▁عملے	-9.89453
86	-9.8952
▁ساخت	-9.89551
▁انقلابی	-9.89559
▁رسمی	-9.89566
روس	-9.89684
ing	-9.89694
▁سہولت	-9.89803
▁ٹریفک	-9.89804
▁ڈیفنس	-9.89804
▁1999	-9.89825
▁سرد	-9.8986
مپ	-9.89895
▁تہوار	-9.8994
▁ایونٹ	-9.90039
▁بلیو	-9.90101
ٹھ	-9.9011
79	-9.9029
▁الیگزینڈر	-9.90308
▁باہمی	-9.90308
▁نوعیت	-9.90308
▁چیلنج	-9.90309
▁گوتھک	-9.90309
مور	-9.90318
ائے	-9.90401
▁پینٹ	-9.90456
▁ماس	-9.90459
▁دشمن	-9.90465
48	-9.9056
▁امداد	-9.90564
▁پوائنٹ	-9.90615
▁پروشین	-9.90799
▁احساس	-9.90816
▁شعبوں	-9.90816
▁علیحدہ	-9.90816
▁کنارے	-9.90816
▁ٹیٹو	-9.90821
▁انگریزوں	-9.90875
▁جنم	-9.90897
▁ہاتھ	-9.90964
▁جزو	-9.91084
▁فلموں	-9.91093
لر	-9.91136
88	-9.91189
--	-9.9125
▁میڈ	-9.91275
91	-9.91285
▁انضمام	-9.91326
▁تنوع	-9.91326
▁روایات	-9.91326
▁ناقابل	-9.91326
▁کیلیفورنیا	-9.91326
▁مفت	-9.91327
▁دیوتاؤں	-9.91332
▁بدلے	-9.91389
▁ٹیموں	-9.91431
ریس	-9.91455
▁پیٹ	-9.9173
گھ	-9.91765
73	-9.91771
▁ملوث	-9.91839
▁مصنوعی	-9.91871
▁دھات	-9.91906
▁فارسی	-9.9193
▁بھائی	-9.91986
▁ٹریڈ	-9.9201
69	-9.92042
▁جج	-9.92053
▁سونی	-9.92094
▁سلاوی	-9.92196
▁لائنوں	-9.92233
▁نیوزی	-9.9229
▁نور	-9.92292
▁دینا	-9.92348
▁مسئلے	-9.92355
▁پریسبیٹیرین	-9.92355
▁چوٹی	-9.92378
▁پرفارم	-9.92422
▁سیکشن	-9.92528
▁جاسکے	-9.92726
برا	-9.92733
▁نظریاتی	-9.92783
▁نوٹری	-9.9282
▁زمانے	-9.92876
ینز	-9.92934
▁فورٹ	-9.9295
▁جوزف	-9.93062
▁بحریہ	-9.93062
▁عمارتیں	-9.93065
▁تباہی	-9.93126
▁اسٹاف	-9.93224
▁الٹ	-9.93274
▁تابکاری	-9.93394
▁تجربے	-9.93394
▁تفویض	-9.93394
▁لمبی	-9.93394
▁موقع	-9.93394
▁لاگت	-9.93394
▁کارنیول	-9.93394
▁بوجھ	-9.93411
▁گریڈ	-9.93415
مز	-9.93501
-2	-9.93575
▁پھل	-9.93599
▁لوڈ	-9.93714
واں	-9.93777
دو	-9.93781
▁ہپ	-9.93805
▁ایرانی	-9.93854
Y	-9.93917
▁بااثر	-9.93917
▁ڈسٹرکٹ	-9.93917
▁ساتویں	-9.93917
▁لکھنے	-9.93931
▁وارسا	-9.93949
▁سرگرمیوں	-9.93955
▁لین	-9.93959
▁غلطی	-9.94014
▁پادری	-9.94076
▁180	-9.94096
▁دیوار	-9.94159
▁کلی	-9.94209
▁نکال	-9.94288
▁اقلیتی	-9.94383
▁سیکرٹری	-9.94444
▁II	-9.94478
75	-9.94489
بیری	-9.94542
▁دورے	-9.94577
▁وزن	-9.94577
▁چھٹی	-9.94594
▁سادہ	-9.94602
نیٹ	-9.94818
▁بازنطینی	-9.94973
▁کپڑے	-9.94973
▁قوت	-9.94973
▁ہنگری	-9.94973
▁سیاست	-9.94974
▁پرائمری	-9.94996
▁مونٹی	-9.95219
▁آپریشنز	-9.9529
▁پروگراموں	-9.95392
▁الہیات	-9.95393
▁اتحادیوں	-9.95442
▁خاتمہ	-9.95504
▁لازمی	-9.95505
▁کنسول	-9.95506
▁پانے	-9.95529
▁میری	-9.95549
▁گیل	-9.95687
▁میٹ	-9.95694
ed	-9.95888
▁پرنس	-9.95954
مل	-9.95977
▁استعفیٰ	-9.96039
▁شہزادی	-9.96039
▁فلاڈیلفیا	-9.96039
▁جنگلی	-9.96134
▁بورو	-9.96136
▁انتظامی	-9.96151
co	-9.96266
▁دستاویز	-9.9628
▁باس	-9.96452
رل	-9.96491
▁ورجینیا	-9.96577
این	-9.96613
55	-9.96636
اج	-9.96646
▁بڑھتے	-9.96648
▁طبی	-9.96724
▁اوور	-9.96794
id	-9.96903
▁اسٹوڈیو	-9.96912
▁ثقافتوں	-9.96926
▁کیمپ	-9.96989
▁بادشاہوں	-9.97009
▁شکلیں	-9.97093
▁انفیکشن	-9.97117
▁رضامندی	-9.97117
▁اوپیرا	-9.97118
رم	-9.97139
▁خودمختاری	-9.972
▁بیونس	-9.97339
▁فنڈ	-9.97389
▁تحریری	-9.97421
▁پرنٹ	-9.97459
▁مطالعات	-9.97661
▁VI	-9.97669
▁رہنماؤں	-9.97683
▁لگتا	-9.97699
▁کینیڈین	-9.97714
▁کاربن	-9.97714
شو	-9.97821
▁کانگو	-9.97858
▁کلبوں	-9.98072
ینا	-9.98106
▁پھیلا	-9.98161
▁مخلوط	-9.98207
▁نظرانداز	-9.98207
▁ہدف	-9.98207
▁شخصیت	-9.98278
▁پیانو	-9.98354
▁منٹ	-9.98361
▁طاقتور	-9.98399
▁فرانسیسیوں	-9.98402
▁اصطلاحات	-9.98612
▁لئے۔	-9.98651
52	-9.98672
▁ماؤنٹ	-9.9869
▁رومیوں	-9.98699
▁دیں	-9.98756
▁بالترتیب	-9.98757
▁شواہد	-9.98757
▁صورتحال	-9.98757
▁اونچی	-9.98757
▁امید	-9.98766
▁پروٹین	-9.98784
▁آٹو	-9.98829
▁مقبولیت	-9.98839
▁فیشن	-9.9888
29	-9.9891
ph	-9.9912
▁قبضے	-9.99309
▁نصوص	-9.99309
▁نچلے	-9.99309
▁کرسکتی	-9.99309
▁ٹیکساس	-9.99372
▁(2	-9.99421
جھ	-9.99431
▁روز	-9.99438
▁فائل	-9.99503
▁ڈبل	-9.99533
▁عہدیداروں	-9.99537
بہ	-9.99601
▁ریٹ	-9.99649
▁کارڈینل	-9.99661
ھا	-9.99671
کون	-9.99805
▁انچ	-9.99813
▁لیک	-9.99855
▁ردعمل	-9.99865
▁عرفی	-9.99865
▁نورفولک	-9.99865
▁وراثت	-9.99865
▁ریسرچ	-9.99865
▁نائب	-9.99883
▁چارٹ	-9.99885
ائزیشن	-9.99892
دہ	-9.99967
▁معیارات	-10.0003
si	-10.0004
▁گرفتار	-10.0005
▁مطابقت	-10.0012
▁ہوئیں	-10.0032
vi	-10.004
▁جائیداد	-10.0042
▁صحیح	-10.0042
▁فطرت	-10.0042
▁ہفتوں	-10.0042
▁دستاویزات	-10.0047
▁رکھے	-10.0048
▁بیجنگ	-10.0051
▁مارول	-10.0056
▁کین	-10.0057
▁ڈائ	-10.0059
▁میزبان	-10.0074
▁پروڈکشن	-10.0078
ہو	-10.0079
▁گولی	-10.0092
▁کیبل	-10.0093
▁تقرری	-10.0099
▁پیسیفک	-10.0099
▁اسفالٹ	-10.0099
▁سوال	-10.0103
یٹر	-10.0103
▁اسکالرز	-10.0108
▁بمباری	-10.0113
▁کارکنوں	-10.0114
گرام	-10.0115
▁گری	-10.0122
▁ایو	-10.0136
▁معلوم	-10.0148
▁29	-10.0152
▁مقاصد	-10.0155
▁حساب	-10.0155
▁پاکستان	-10.0155
▁کتابوں	-10.0159
▁مزدوری	-10.0165
▁عوامل	-10.017
▁فال	-10.0177
▁a	-10.0178
▁ڈیوک	-10.0187
▁بیٹی	-10.0205
▁45	-10.0207
▁کثافت	-10.0212
▁محبت	-10.0213
▁ایشیا	-10.0219
▁بچنے	-10.0219
▁چلایا	-10.0223
▁بیٹا	-10.023
یری	-10.0233
▁غلامی	-10.0244
11	-10.0255
▁طیاروں	-10.0269
▁ویلز	-10.027
j	-10.0275
▁آتی	-10.0276
▁خانقاہ	-10.029
▁سوچا	-10.0293
بول	-10.03
98	-10.0308
تھر	-10.0316
▁لگ	-10.0319
▁لسانی	-10.0322
یکٹ	-10.0326
▁درآمد	-10.0326
▁رابطے	-10.0326
▁طیارے	-10.0326
▁ٹرانسمیشن	-10.0326
▁براؤن	-10.0326
▁تغیرات	-10.0329
▁ڈاک	-10.033
▁آبائی	-10.0335
▁باقیات	-10.0339
▁جیو	-10.0347
ؤ	-10.035
▁تجربات	-10.0359
▁ہیرو	-10.0375
▁اتھارٹی	-10.0384
▁حوالے	-10.0384
▁کیشنز	-10.0386
▁فرنٹ	-10.0392
45	-10.0399
▁برلن	-10.041
▁مسافروں	-10.0413
▁دفاعی	-10.0414
▁بہتری	-10.0417
▁ٹیمیں	-10.0426
▁تنازعات	-10.0442
▁عبادت	-10.0442
▁نینٹینڈو	-10.0442
▁ٹائٹل	-10.0443
▁میسنری	-10.0446
▁نسب	-10.0458
▁عثمانیہ	-10.0463
58	-10.0476
ریک	-10.0488
▁بور	-10.0494
▁رن	-10.0497
▁استحکام	-10.0501
▁مادہ	-10.0502
K	-10.0503
▁فورا	-10.051
▁شکاریوں	-10.0516
▁امیدوار	-10.0523
▁تجرباتی	-10.0526
▁ہیٹن	-10.0527
▁گرا	-10.055
▁انڈسٹری	-10.056
▁بجٹ	-10.056
▁مضمون	-10.056
▁یوگوسلاویہ	-10.056
▁سیکھنے	-10.056
▁سمجھتے	-10.0561
hi	-10.0567
▁ڈالنے	-10.0568
1,	-10.0568
▁آل	-10.057
فٹ	-10.0597
pa	-10.0618
53	-10.0619
▁راؤنڈ	-10.0619
▁منشیات	-10.0619
▁منفرد	-10.0619
▁پاؤنڈ	-10.0619
▁یہوواہ	-10.0619
▁ویتنام	-10.0619
▁1945	-10.0621
▁اصولوں	-10.0621
,000	-10.0636
▁فلسفی	-10.0641
سٹین	-10.0645
▁اسرائیلی	-10.0646
▁(1	-10.0661
ٹرن	-10.0668
▁اہداف	-10.0678
▁بمقابلہ	-10.0678
▁ماضی	-10.0678
▁تووالو	-10.0678
▁مراکز	-10.0678
▁سیچوان	-10.0678
▁مراد	-10.0683
ci	-10.0687
▁پیرا	-10.069
▁بیماریوں	-10.0698
▁زد	-10.0713
▁ماہی	-10.0719
▁ادائیگی	-10.0738
▁بخش	-10.0738
▁یوکرائن	-10.0738
▁میڈیسن	-10.0738
▁ایورٹن	-10.0738
بیٹ	-10.074
▁ہانگ	-10.0749
▁ہیل	-10.0757
▁یونانیوں	-10.0778
اپ	-10.078
سٹن	-10.079
▁تصورات	-10.0791
▁لائی	-10.0792
▁ذخائر	-10.0799
▁شرائط	-10.0799
▁تازہ	-10.0799
▁گوام	-10.0801
▁رہتی	-10.0802
▁نسلوں	-10.0802
▁فرینک	-10.0804
یور	-10.0806
▁منگول	-10.0822
39	-10.0837
▁ایسڈ	-10.0837
▁رکھا۔	-10.0838
mi	-10.0846
▁(200	-10.0846
ریج	-10.085
81	-10.085
▁قبیلے	-10.0859
▁خاتون	-10.0859
▁چوتھے	-10.0859
▁کمپریشن	-10.0859
▁چوتھی	-10.0859
▁پروٹو	-10.086
▁کائنات	-10.086
▁بڑھایا	-10.0874
▁لاک	-10.0896
▁عیسائیوں	-10.0899
▁کمیونٹیز	-10.0908
va	-10.0918
▁متنازعہ	-10.092
▁کھٹمنڈو	-10.092
▁ڈانس	-10.0921
▁1988	-10.0923
▁مورخین	-10.0923
▁ڈیموکریٹک	-10.0924
▁فرش	-10.0928
▁فرد	-10.0931
mo	-10.0935
▁تال	-10.0938
▁پڑوسی	-10.0944
▁حریف	-10.0945
▁ایریا	-10.0946
▁آہنگ	-10.095
یون	-10.0953
▁افتتاح	-10.0956
ڈک	-10.0959
▁چارج	-10.0976
▁اجداد	-10.0981
▁باشندے	-10.0981
▁تصاویر	-10.0981
▁جدوجہد	-10.0981
▁ساؤنڈ	-10.0981
▁معاملے	-10.0981
▁1994	-10.0983
▁نمک	-10.0984
▁منی	-10.0985
il	-10.0993
▁ماں	-10.0995
J	-10.1003
▁ٹائ	-10.1015
ئل	-10.1018
89	-10.1033
▁میموری	-10.1033
▁اصلاح	-10.1034
▁انکشاف	-10.1043
▁ٹکڑے	-10.1043
▁خلیج	-10.1043
▁تار	-10.1049
▁لائیو	-10.1055
ورا	-10.106
19	-10.1078
ho	-10.1085
▁حکومتوں	-10.1088
▁بنانا	-10.1092
46	-10.1101
▁سفارش	-10.1105
▁مشورہ	-10.1105
▁مہینوں	-10.1105
▁گوشت	-10.1105
▁کالونیوں	-10.1106
▁1939	-10.1107
▁بوٹ	-10.1114
▁جرمنوں	-10.1123
37	-10.114
▁گنا	-10.1149
62	-10.1162
▁اہتمام	-10.1168
▁جانبدار	-10.1168
▁1979	-10.117
▁یعنی	-10.1176
36	-10.1176
▁مائیکل	-10.1177
▁نیم	-10.1179
ونڈ	-10.1183
▁بالکل	-10.1183
فو	-10.1207
200	-10.1208
▁جانشین	-10.1214
▁لیو	-10.1223
▁کورک	-10.1226
▁1941	-10.1231
▁طلب	-10.1231
▁مبینہ	-10.1231
▁خوردہ	-10.1231
▁خلائی	-10.1232
▁پرفارمنس	-10.1233
▁اولاد	-10.1234
▁کیڑوں	-10.1234
▁آتے	-10.1237
▁جذباتی	-10.1239
ینڈ	-10.1256
چو	-10.1264
پٹن	-10.1268
مہ	-10.1274
فور	-10.1281
▁گلوکار	-10.1286
▁ابھر	-10.1292
▁مائکرو	-10.1294
▁BYU	-10.1294
▁اطلاق	-10.1294
▁ریستوراں	-10.1294
▁سامعین	-10.1294
▁مائیکروسافٹ	-10.1294
▁انٹیلی	-10.1295
▁1949	-10.1296
▁2016	-10.1296
▁1995	-10.1297
▁مقناطیسی	-10.1301
▁گیلری	-10.1302
51	-10.1304
یلا	-10.131
▁بپٹسٹ	-10.1311
▁برج	-10.1312
▁ہوگیا۔	-10.1315
▁مس	-10.1319
سیس	-10.1326
▁رنگین	-10.1329
▁اوک	-10.1343
▁ازم	-10.1349
▁کھلا	-10.1357
▁آثار	-10.1358
▁بزنس	-10.1358
▁تشخیص	-10.1358
▁حکام	-10.1358
▁لائف	-10.1358
▁لیبارٹری	-10.1358
▁مؤثر	-10.1358
▁فاکس	-10.1358
▁چھوڑنے	-10.1377
▁باب	-10.1378
21	-10.1386
et	-10.139
83	-10.1395
▁300	-10.1398
فل	-10.1402
▁مونو	-10.1404
▁آسانی	-10.1406
▁شیئر	-10.1415
▁سیکنڈ	-10.1417
▁بدل	-10.1417
▁دیوتا	-10.1421
▁1992	-10.1422
▁طبیعیات	-10.1422
▁کنفیڈریشن	-10.1422
▁منسٹر	-10.1423
▁جنگلات	-10.1428
▁خریداری	-10.1431
ید	-10.1438
▁اسٹیشنوں	-10.1442
▁مسلمانوں	-10.1451
بس	-10.1453
▁گیٹ	-10.1455
▁بیورو	-10.1455
▁پابند	-10.1459
▁واقعے	-10.146
اے	-10.1464
▁360	-10.1465
▁ہوگی	-10.1472
93	-10.1483
▁ابتدا	-10.1484
▁احکامات	-10.1487
▁چیئرمین	-10.1487
چھ	-10.1509
▁موسیقار	-10.1514
▁ڈور	-10.1517
کوس	-10.1518
▁مدتی	-10.1521
▁عبور	-10.1526
po	-10.1527
▁سرکٹ	-10.1536
▁سماعت	-10.1551
▁مواقع	-10.1551
▁گریجویٹ	-10.1551
▁بیڑے	-10.1551
▁میزائل	-10.1552
▁فلپائن	-10.1552
▁کٹ	-10.1559
ونک	-10.1569
▁پرت	-10.1569
وکس	-10.157
▁فرانسس	-10.1575
▁ٹرسٹ	-10.159
گین	-10.1595
▁+	-10.1602
پورٹ	-10.1602
▁بلاک	-10.1604
▁کارڈ	-10.1605
▁اعانت	-10.1617
▁زائرین	-10.1617
▁صوبہ	-10.1617
▁کولمبیا	-10.1617
▁اینگلو	-10.1617
▁مضافاتی	-10.1626
▁ملتے	-10.1634
▁چھت	-10.1635
▁اشکنازی	-10.1643
▁حامی	-10.1646
▁پھول	-10.1646
▁خرابی	-10.1649
▁داخلہ	-10.1649
میٹ	-10.165
▁سیاحت	-10.1658
ریگ	-10.1662
کٹر	-10.167
▁بتایا	-10.1682
سٹک	-10.1685
▁سوشلسٹ	-10.1685
▁بائیوٹکس	-10.1691
سٹا	-10.1691
▁(3	-10.1697
54	-10.1712
▁جماعتوں	-10.1714
▁دہائیوں	-10.1716
ts	-10.172
84	-10.1721
تقریبا	-10.1732
▁الیکٹرانک	-10.1737
مونٹ	-10.1738
ٹرز	-10.1743
▁ترغیب	-10.1749
▁نایاب	-10.1749
▁سوانح	-10.175
▁1974	-10.1751
شیا	-10.1752
▁اجتماعی	-10.1755
▁جمہوریت	-10.1755
▁ابھی	-10.1756
▁سانٹا	-10.1762
ٹیم	-10.1775
▁گروہ	-10.1782
ٹوری	-10.1793
▁کرلیا	-10.1801
▁آرکسٹرا	-10.1815
▁توثیق	-10.1815
▁رقص	-10.1815
▁میوزیکل	-10.1815
▁نصب	-10.1815
▁اسٹریٹجک	-10.1815
▁تحقیقی	-10.1817
▁باڈی	-10.1821
▁اتنا	-10.1822
▁میس	-10.1823
▁پینل	-10.1823
▁ہائ	-10.1831
▁ضروریات	-10.1831
▁ساحلی	-10.1837
▁جائے۔	-10.1843
26	-10.185
▁نفسیات	-10.1857
▁لانگ	-10.1877
▁صارف	-10.1878
▁1987	-10.1882
▁عالمگیر	-10.1882
▁فرض	-10.1884
▁خالی	-10.1884
▁اسٹاپ	-10.1886
▁آباؤ	-10.1887
▁اقلیت	-10.189
▁رول	-10.1905
▁فلیٹ	-10.1909
ست	-10.1912
▁ابن	-10.1912
▁سائنسدان	-10.1913
▁جرم	-10.1935
49	-10.1945
▁آدمی	-10.195
▁اعتراض	-10.195
▁1977	-10.195
▁جامع	-10.195
▁امتیازی	-10.1954
▁کوریائی	-10.1956
▁سوم	-10.1957
▁بائیو	-10.1958
▁ریم	-10.1961
▁تقریبات	-10.1968
▁ہیلی	-10.1974
▁کول	-10.1974
▁ملٹی	-10.1975
▁ہاپ	-10.1979
▁گور	-10.1987
▁ریاستیں	-10.1987
63	-10.1989
▁نگار	-10.1998
مار	-10.1998
اگو	-10.2001
یٹس	-10.2001
▁انتخابی	-10.2001
بری	-10.2002
ائٹس	-10.2017
▁بیکٹیریل	-10.2018
▁کنندہ	-10.2018
▁پروشیا	-10.2019
▁کسانوں	-10.2021
▁نیلے	-10.2021
▁آئن	-10.2023
▁پلان	-10.2024
▁ریپ	-10.205
▁قربانی	-10.2057
▁بکس	-10.2059
▁فیڈ	-10.2067
▁تھلگ	-10.2086
▁قسطنطنیہ	-10.2086
▁خرچ	-10.2086
▁اخذ	-10.2087
▁بہاؤ	-10.2087
▁دفن	-10.2087
▁برائے	-10.2087
▁جشن	-10.2088
▁اسٹاک	-10.2088
▁1969	-10.2089
▁پڑھنے	-10.209
24	-10.2097
▁پہنچے	-10.2105
▁شیر	-10.2112
▁مڈ	-10.2112
nd	-10.2118
ویٹ	-10.2118
کین	-10.2124
▁صدارت	-10.213
بین	-10.2131
▁سڑکوں	-10.2139
▁گیمز	-10.2141
▁متاثرہ	-10.2144
▁الیکٹرو	-10.2145
▁گھڑی	-10.2154
▁سہولیات	-10.2155
▁ڈاؤن	-10.2155
▁ہوجاتا	-10.2155
▁سیکولر	-10.2155
▁بولتے	-10.2156
زین	-10.2157
▁مظاہرین	-10.2157
▁1996	-10.2158
66	-10.2164
▁رہائشیوں	-10.2173
96	-10.2179
▁خان	-10.2182
▁کارروائیوں	-10.2182
▁شاعری	-10.2184
ننگ	-10.2199
74	-10.2202
▁پڑھ	-10.2211
▁پہاڑ	-10.2218
71	-10.2219
▁اضلاع	-10.2225
▁مکینیکل	-10.2225
▁فلکیات	-10.2225
▁1993	-10.2227
▁رکھ	-10.2227
▁لوتھر	-10.2228
▁جوڑنے	-10.2228
97	-10.2232
▁توڑ	-10.2244
▁ہوگا۔	-10.2249
▁ٹول	-10.2251
آئی	-10.2258
▁دوڑ	-10.2262
▁پڑا۔	-10.2263
▁ہو۔	-10.2277
▁اٹھا	-10.2281
▁قیمتوں	-10.2286
▁غذائی	-10.2289
di	-10.2291
▁ریور	-10.2293
▁دہشت	-10.2295
▁فیڈریشن	-10.2295
▁سالگرہ	-10.2295
▁اسکرین	-10.2295
▁اسمتھ	-10.2295
▁قدیمہ	-10.2297
▁1948	-10.2298
▁گزر	-10.2299
▁موڑ	-10.2299
▁چلاتا	-10.2303
▁نفسیاتی	-10.2321
▁ظاہری	-10.2323
▁اسٹورز	-10.2338
▁اسٹیل	-10.2343
▁گال	-10.2344
▁ناموں	-10.2351
▁قدر	-10.2363
▁خوبصورت	-10.2365
▁مقدمہ	-10.2365
▁لوہے	-10.2365
▁اسٹوریج	-10.2365
▁اڈوں	-10.2365
ian	-10.2367
▁نمونے	-10.2368
▁لیمپ	-10.2373
▁پسندوں	-10.2382
یاں	-10.2392
کیٹ	-10.2397
▁ویک	-10.2402
▁حامیوں	-10.2405
tr	-10.2406
22	-10.2425
▁150	-10.2431
▁اعتراف	-10.2436
▁غریب	-10.2436
▁موصول	-10.2436
▁میانمار	-10.2436
▁مینوفیکچرنگ	-10.2436
▁کبھار	-10.2436
▁چیپل	-10.2439
▁اسپیس	-10.2441
▁نوجوانوں	-10.2442
28	-10.2444
▁تفریحی	-10.2451
▁گواہوں	-10.2469
▁رہ	-10.2476
▁برآمد	-10.2478
5،000	-10.2482
▁مثالی	-10.2483
▁کہیں	-10.2483
رب	-10.2487
▁ججوں	-10.2487
82	-10.2501
▁چڑھ	-10.2503
▁افسانوی	-10.2508
▁ایندھن	-10.2508
▁صوبوں	-10.2508
▁ضبط	-10.2508
▁پورٹو	-10.2516
▁پر۔	-10.2518
▁تبدیلیاں	-10.2519
▁120	-10.2526
▁مارنے	-10.2531
کشن	-10.2532
▁عراق	-10.2533
فین	-10.2544
▁ایٹم	-10.2545
▁ورکس	-10.2548
▁مضبوطی	-10.255
▁میٹا	-10.2553
اہ	-10.2556
▁پلیئر	-10.2563
نیس	-10.2567
▁اخراج	-10.2575
▁معدوم	-10.2577
یئن	-10.2578
▁سلامتی	-10.258
▁ڈومینیکن	-10.258
▁پنجاب	-10.258
▁اسپورٹس	-10.258
▁سومری	-10.2586
▁مارٹن	-10.2593
ڈیل	-10.2596
ائزڈ	-10.2596
▁کمپنیاں	-10.2598
پول	-10.2603
▁بناتی	-10.2606
▁تاجروں	-10.261
▁ریلی	-10.2614
▁کلو	-10.2624
▁Ma	-10.2626
▁خلا	-10.265
▁اشتراک	-10.2652
▁رابطہ	-10.2652
▁کمپیوٹرز	-10.2653
▁شریک	-10.2653
▁The	-10.2653
▁1976	-10.2654
▁اسکیم	-10.2654
▁سمجھنے	-10.2655
he	-10.2663
▁انڈے	-10.2669
▁زخمی	-10.2676
▁ٹوٹ	-10.2682
ent	-10.2683
▁بیٹری	-10.2694
▁(17	-10.2697
▁75	-10.2701
▁آرکائیو	-10.2704
▁تعارف	-10.2725
▁علماء	-10.2725
▁مدمقابل	-10.2725
▁اسکرپٹ	-10.2725
▁سائیڈ	-10.2726
▁جڑ	-10.2729
▁کنی	-10.273
▁دھ	-10.2748
▁نقصانات	-10.2751
▁ٹرو	-10.2762
▁اولمپکس	-10.2768
▁پاک	-10.2777
▁1000	-10.2777
▁دائر	-10.2783
▁انجینئر	-10.2789
▁سائ	-10.2793
▁چوتھا	-10.2797
▁مینجمنٹ	-10.2799
▁خزاں	-10.2799
▁چلتی	-10.2801
▁1971	-10.2801
▁1985	-10.2802
▁ہڈی	-10.2807
▁آرام	-10.2808
یلو	-10.281
▁ایڈیٹر	-10.2815
▁بھیج	-10.282
▁اوپری	-10.2837
▁پادریوں	-10.285
▁نویں	-10.2858
08	-10.2859
▁قومیت	-10.2871
ومی	-10.2871
▁الکاہل	-10.2873
▁انتقال	-10.2873
▁تشدد	-10.2873
▁دفاتر	-10.2873
▁متضاد	-10.2873
▁ڈھانچہ	-10.2873
▁متنوع	-10.2873
▁ویکیوم	-10.2873
▁منایا	-10.2873
▁انڈیکس	-10.2873
▁تناؤ	-10.2873
▁اسکائی	-10.2873
▁بت	-10.288
▁باپ	-10.2887
ورڈ	-10.2895
▁پرجاتی	-10.2911
▁لڑ	-10.2915
▁سرپرست	-10.2918
de	-10.2934
ایس	-10.2934
ck	-10.294
▁بجے	-10.2947
▁ریڑھ	-10.2947
▁ضوابط	-10.2947
▁یونائیٹڈ	-10.2947
▁تہائی	-10.2947
▁پروٹوکول	-10.2948
▁تکمیل	-10.2948
▁ملازمین	-10.295
).	-10.2952
▁پہلوان	-10.2955
▁چاندی	-10.2967
رڈ	-10.2978
▁جینوں	-10.2979
▁مسافر	-10.2986
ریڈ	-10.2993
67	-10.3001
▁پس	-10.3012
یں۔	-10.3014
▁بیرون	-10.3017
▁سولو	-10.302
▁تلفظ	-10.3022
▁محققین	-10.3022
▁قطب	-10.3022
▁گانوں	-10.3023
▁انگور	-10.3023
▁کاشت	-10.3024
▁باؤل	-10.3029
▁فرسٹ	-10.3031
▁ڈون	-10.3032
▁بگ	-10.3033
▁ٹار	-10.3041
▁الہی	-10.3045
▁گریٹر	-10.3049
▁سوار	-10.3052
▁ٹام	-10.3052
sa	-10.3056
man	-10.3061
▁شاعر	-10.3067
ka	-10.3097
▁1944	-10.3098
▁ثانوی	-10.3098
▁سلطان	-10.3098
▁ظہور	-10.3098
▁قدامت	-10.3098
▁متوازی	-10.3098
▁مربوط	-10.3098
▁جائیں	-10.3098
▁صاف	-10.3099
▁سچائی	-10.31
▁مرکبات	-10.311
▁کرو	-10.3112
▁پریشانی	-10.3117
▁نازی	-10.3124
▁کھیلنے	-10.3128
▁لی۔	-10.3151
▁ایمان	-10.3155
▁سیکسن	-10.3157
▁ایلن	-10.3161
▁پیری	-10.3162
▁ڈیک	-10.3163
▁الیکٹران	-10.3164
é	-10.3174
▁مرحلہ	-10.3174
▁خلیات	-10.3175
▁دوچار	-10.3175
▁پیدل	-10.3175
▁نامزدگی	-10.3178
لیم	-10.318
▁ہائیڈرو	-10.3199
کلی	-10.3203
▁جماعت	-10.3206
▁کانگ	-10.3211
▁سور	-10.3233
▁بنایا۔	-10.324
▁بازو	-10.3244
▁متوجہ	-10.3251
▁نمیبیا	-10.3251
▁دھمکی	-10.3251
▁بٹومین	-10.3251
▁بدعت	-10.3251
▁رواج	-10.3253
▁ساموا	-10.3254
▁جوڑتا	-10.3255
▁جونیئر	-10.3258
▁بنتا	-10.3258
▁گاؤں	-10.3259
▁نوبل	-10.326
▁کرس	-10.3262
▁ماؤنٹین	-10.3263
▁سینا	-10.3265
76	-10.3274
ہم	-10.3274
اسی	-10.3275
رول	-10.3296
▁قید	-10.3302
آر	-10.3303
ge	-10.3309
▁انجن	-10.3314
▁ہند	-10.3315
▁منزل	-10.3321
▁اقدام	-10.3324
▁اونچا	-10.3327
ایم	-10.3328
▁آلودگی	-10.3329
▁اقدار	-10.3329
▁تاخیر	-10.3329
▁مجسمہ	-10.3329
▁ہنوور	-10.3329
▁باسکٹ	-10.333
ینو	-10.3334
▁مول	-10.334
لام	-10.3346
بار	-10.3349
▁کرداروں	-10.3349
▁سکھ	-10.3349
▁صف	-10.3356
اکا	-10.3382
▁دیواروں	-10.3383
16	-10.3387
▁تحریر	-10.3405
▁اشنکٹبندیی	-10.3407
▁ایتھلیٹک	-10.3407
▁ایوسینا	-10.3407
▁چھٹے	-10.3407
▁ڈھک	-10.3407
▁طول	-10.3408
▁فلمیں	-10.3408
▁شق	-10.3412
▁آزادانہ	-10.3412
ارٹ	-10.3412
▁ہٹانے	-10.3418
▁فریق	-10.342
▁عدالتی	-10.3425
دیکھیں	-10.3435
▁اخبارات	-10.3436
▁اپنانے	-10.3438
▁$	-10.3441
▁موڈ	-10.3443
▁ہیو	-10.3459
▁معمول	-10.3461
▁اکاؤنٹ	-10.3466
▁ذہن	-10.3473
▁تھیوری	-10.3475
▁اگ	-10.348
▁افعال	-10.3486
▁تہجی	-10.3486
▁1917	-10.3486
▁1972	-10.3486
▁اسٹائل	-10.3486
▁کوانٹم	-10.3486
▁1964	-10.349
tic	-10.3491
▁جوڑے	-10.3493
▁خام	-10.3493
سم	-10.35
▁عنوانات	-10.3501
ae	-10.3509
▁رنگوں	-10.3514
▁سیمی	-10.3514
▁جگہوں	-10.3515
▁توپ	-10.3516
▁بیٹھ	-10.3518
ڈیا	-10.3526
▁ٹائپ	-10.3527
▁بیوی	-10.3531
2)	-10.3547
▁ماریا	-10.3548
▁عدالتوں	-10.355
▁راغب	-10.3565
▁مذمت	-10.3565
▁منسوب	-10.3565
▁میساچوسٹس	-10.3565
▁گراؤنڈ	-10.3565
▁ایسٹونین	-10.3565
▁تائیوان	-10.3566
▁نہاد	-10.3571
▁ریکو	-10.3578
▁ہاٹ	-10.3579
▁ہوگی۔	-10.3583
▁قیدیوں	-10.3584
▁گواہ	-10.361
▁آئل	-10.3615
یان	-10.3615
▁سنگ	-10.3621
94	-10.3625
▁خدشات	-10.3645
▁متوقع	-10.3645
▁ضمانت	-10.3645
▁نمونہ	-10.3645
▁مرتب	-10.3646
▁ویکسین	-10.3646
▁اتنی	-10.3649
▁لڑنے	-10.365
کے	-10.3653
▁مدار	-10.3654
▁غذائیت	-10.3654
▁کھول	-10.3658
ie	-10.3667
ولین	-10.367
▁پڑ	-10.3677
▁گریز	-10.3677
تن	-10.3683
▁جنگل	-10.369
▁ویلی	-10.3693
▁ساتھی	-10.3714
▁آوازوں	-10.3714
▁صلیبی	-10.3718
▁نیپال	-10.3719
راس	-10.3724
▁معطل	-10.3726
▁ایڈجسٹ	-10.3726
▁جارہا	-10.3726
▁مونٹانا	-10.3726
▁پہلوؤں	-10.3727
▁جلتا	-10.3728
▁1978	-10.373
35	-10.373
▁1918	-10.373
tu	-10.3749
▁جارجیا	-10.3759
▁افتتاحی	-10.3759
موس	-10.3763
▁دھو	-10.3773
▁فوڈ	-10.3778
▁مسلمان	-10.3779
گرافک	-10.3786
▁زمینوں	-10.379
ns	-10.3797
▁تھری	-10.3801
▁باقاعدگی	-10.3807
▁عقیدہ	-10.3807
▁وغیرہ	-10.3807
▁کمرے	-10.3807
▁یکساں	-10.3807
▁دمہ	-10.3808
▁واقفیت	-10.3808
▁کرسٹل	-10.3809
▁1967	-10.3809
▁انجیل	-10.381
▁سوائے	-10.3811
▁کاپیاں	-10.3811
▁دھن	-10.3821
▁کنٹری	-10.3823
▁بھرتی	-10.383
▁ٹیسٹنگ	-10.3833
▁اداکاری	-10.3833
▁سفارت	-10.386
▁ہاتھوں	-10.3866
▁جمہوری	-10.3873
▁دانوں	-10.3882
▁پارلیمانی	-10.3889
▁سوازیلینڈ	-10.3889
▁آئس	-10.389
▁خاندانی	-10.3891
▁1984	-10.3892
▁دریاؤں	-10.3892
▁ایلی	-10.3895
وما	-10.3902
▁400	-10.3903
▁رکھی۔	-10.3907
▁(5	-10.3911
ine	-10.3912
▁فیس	-10.3919
وئی	-10.3927
▁سلطنتوں	-10.3937
ڈیم	-10.3949
▁ایوی	-10.3962
▁اخلاقی	-10.3967
▁بھاگ	-10.3968
▁1961	-10.3972
▁فلسفے	-10.3972
▁دکان	-10.3972
▁دسویں	-10.3972
▁شیڈول	-10.3972
▁پیپلز	-10.3972
▁ارادہ	-10.3972
▁1973	-10.3975
▁میجر	-10.3976
ad	-10.3981
▁(16	-10.3982
▁جیانگ	-10.3982
▁الزامات	-10.3986
ٹیس	-10.3996
▁ڈومین	-10.4004
رگ	-10.4007
▁ٹیکنالوجیز	-10.4012
اوی	-10.4021
▁فوجوں	-10.4021
▁روسیوں	-10.4054
▁ایکسپلورر	-10.4055
▁دستبردار	-10.4055
▁وعدہ	-10.4055
▁کھپت	-10.4055
▁مینیجر	-10.4055
▁پمپ	-10.4056
ə	-10.4057
▁روانہ	-10.4058
▁آرتھر	-10.4063
▁چلائی	-10.4063
▁رائن	-10.4068
▁میموریل	-10.4068
▁برون	-10.4069
▁نکل	-10.4077
ir	-10.4078
▁ویانا	-10.408
▁کارڈینلز	-10.4086
رج	-10.4089
▁جانسن	-10.4092
پنگ	-10.4093
▁یہودیت	-10.4094
▁انڈو	-10.4097
مثال	-10.41
وار	-10.4105
نٹس	-10.4107
▁ارب	-10.4109
▁آرچ	-10.4114
▁ہالی	-10.4115
ولر	-10.4116
▁انٹرٹینمنٹ	-10.4139
▁سینئر	-10.4139
▁سوراخ	-10.4139
▁ٹھوس	-10.414
▁فلسفیانہ	-10.414
▁سزائے	-10.414
▁1982	-10.4142
ڈے	-10.4144
▁کھلے	-10.4145
ائر	-10.4159
▁کیبس	-10.4162
▁Z	-10.417
گس	-10.4171
▁ینگ	-10.4171
▁بوس	-10.4172
▁چیزوں	-10.4173
▁پریڈ	-10.4176
،000	-10.419
ورس	-10.4191
الا	-10.4193
do	-10.4212
▁دکھا	-10.4212
▁میرین	-10.4214
▁ریو	-10.4215
▁مذاہب	-10.4224
▁مچھلی	-10.4224
▁پروسیسنگ	-10.4224
▁گہری	-10.4224
▁کامکاسٹ	-10.4224
▁وینس	-10.4224
▁ٹرانسمیٹر	-10.4224
▁کینساس	-10.4224
▁تفصیلات	-10.4226
▁1966	-10.4226
▁بچانے	-10.4229
▁گولڈ	-10.423
▁ذہنی	-10.4238
سکا	-10.424
یش	-10.4241
▁(20	-10.425
ve	-10.4257
میر	-10.4267
23	-10.4267
▁سائنسدانوں	-10.427
▁گاڑی	-10.4271
▁موسیقاروں	-10.4272
▁دنوں	-10.4293
▁جوڑ	-10.4304
▁عمودی	-10.4309
▁قلعے	-10.4309
▁لغت	-10.4309
▁مراحل	-10.4309
▁موبائل	-10.4309
▁ڈویلپمنٹ	-10.4309
▁ہوجائے	-10.4309
▁خلیوں	-10.4309
▁ٹرانسپورٹ	-10.431
▁میونسپلٹی	-10.4312
▁لینڈنگ	-10.4313
▁رکنیت	-10.4315
▁حراستی	-10.4316
▁وقفے	-10.4327
▁پرستوں	-10.4328
▁اداکار	-10.4331
▁کوچ	-10.4342
▁اسٹیج	-10.4346
▁ڈری	-10.4349
▁گیری	-10.4356
▁ایکڑ	-10.4359
▁فاموں	-10.4367
بان	-10.4378
▁پہچان	-10.4383
ران	-10.4385
▁(4	-10.4386
▁آبادیوں	-10.4395
▁دعوت	-10.4396
▁غائب	-10.4396
▁مذاکرات	-10.4396
▁برٹش	-10.4396
▁پریمیر	-10.4397
▁سختی	-10.4397
▁روحانی	-10.4398
▁مماثلت	-10.4399
▁علی	-10.44
▁کشتی	-10.4403
▁لائنز	-10.4405
▁تکلیف	-10.4409
▁پہنچایا	-10.4416
▁فرم	-10.4419
▁بیسن	-10.4421
▁160	-10.4437
ڈنگ	-10.4444
▁پیلی	-10.4457
ou	-10.4467
رٹ	-10.4468
▁سرنگ	-10.4477
▁آکسائڈ	-10.4482
▁بصری	-10.4482
▁تزئین	-10.4482
▁تصادم	-10.4482
▁دھماکے	-10.4482
▁عرض	-10.4482
▁نقاب	-10.4482
▁بارہویں	-10.4482
▁پائلٹ	-10.4482
▁تھرمل	-10.4483
▁خیز	-10.4485
▁گرامر	-10.4486
▁ہیلتھ	-10.4487
▁آئلینڈ	-10.4488
▁نہر	-10.4497
▁1900	-10.4497
▁KU	-10.4506
▁لیتے	-10.4523
▁گڈ	-10.4523
▁گارڈن	-10.4526
▁معمار	-10.4533
▁بستی	-10.4541
یسس	-10.4543
▁بیلٹ	-10.4543
ں	-10.4566
W	-10.4567
▁مالا	-10.4568
▁غذا	-10.4568
▁احترام	-10.457
▁تدفین	-10.457
▁رومانٹک	-10.457
▁نشاۃ	-10.457
▁نکولس	-10.457
▁ڈرامائی	-10.457
▁یونیکوڈ	-10.457
▁فیکلٹی	-10.457
▁برانڈ	-10.457
▁ڈیلی	-10.4571
▁مطلوبہ	-10.4571
em	-10.4573
▁1975	-10.4574
▁ایج	-10.4574
▁1914	-10.4575
▁ثانیہ	-10.4576
▁فیفا	-10.4579
▁مالکان	-10.4582
▁ایسٹر	-10.4591
▁ٹیبل	-10.4605
▁دستاویزی	-10.4611
▁تعلیمات	-10.4622
▁موٹرز	-10.4629
▁پالیسیوں	-10.4644
▁سپیکٹر	-10.4649
ba	-10.465
▁پیک	-10.4653
ڈون	-10.4658
▁فوائد	-10.4659
▁محافظ	-10.4659
▁ملحقہ	-10.4659
▁نمائندوں	-10.4659
▁کمپلیکس	-10.4659
▁یروشلم	-10.4659
▁بچپن	-10.4659
▁معدنیات	-10.466
▁جرسی	-10.466
▁آفیسر	-10.466
▁سکے	-10.4664
▁تھیم	-10.467
▁فرانسسکو	-10.4672
▁کوریج	-10.4681
▁البمز	-10.4681
▁دیں۔	-10.4683
▁صوتیات	-10.4683
اخ	-10.4691
im	-10.4695
▁£	-10.4706
▁سانس	-10.4711
▁عہدیدار	-10.4711
▁کاسٹ	-10.4712
ٹکس	-10.4715
▁فارس	-10.4716
▁پینے	-10.4719
▁پریشان	-10.4726
▁کتابیں	-10.4733
▁فنکشن	-10.4741
Q	-10.4748
▁مقدمات	-10.4748
▁ناقص	-10.4748
▁بتائیں	-10.4748
▁میکسیکن	-10.4748
▁1963	-10.4751
▁1860	-10.4756
▁کورس	-10.4776
▁موضوعات	-10.4784
▁عمری	-10.4795
پولس	-10.4801
▁ہولڈ	-10.4804
▁قدم	-10.4813
▁ہارٹ	-10.4814
ء	-10.4833
▁افسر	-10.4834
▁BeiDou	-10.4838
▁اوقیانوس	-10.4838
▁خیراتی	-10.4838
▁مطلق	-10.4838
▁شدت	-10.4838
▁موقف	-10.4838
▁انٹرفیس	-10.4838
▁of	-10.4839
▁کمشنر	-10.484
▁1958	-10.4841
▁واک	-10.4855
▁پڑتال	-10.4859
▁رائ	-10.4859
▁قرضے	-10.4859
▁آور	-10.4861
▁سنبھالا	-10.4867
▁فرقہ	-10.4872
▁علمی	-10.488
▁سمجھ	-10.4895
▁لیتا	-10.4905
▁درختوں	-10.4905
چین	-10.4918
▁ایجنسیوں	-10.4922
▁نارمن	-10.4927
▁انڈرگریجویٹ	-10.4929
▁تھورنگیا	-10.4929
▁حیرت	-10.4929
▁خطرناک	-10.4929
▁ناقدین	-10.4929
▁ٹرانزٹ	-10.4929
▁کھڑا	-10.4929
▁ٹرافی	-10.4929
▁پروسیا	-10.493
▁انکوڈنگ	-10.4932
▁Sa	-10.4935
▁ہاربر	-10.4937
▁پیڈ	-10.494
▁نوٹر	-10.4957
▁معاشیات	-10.4957
▁تاجر	-10.4966
▁کرنٹ	-10.4967
▁پڑھا	-10.4969
▁بندرگاہوں	-10.4979
▁روکا	-10.4986
▁ڈیس	-10.4995
▁سرے	-10.4995
▁ڈیوائس	-10.5
▁آئ	-10.502
nt	-10.5021
▁صحافی	-10.5021
▁رسومات	-10.5021
▁سرزمین	-10.5021
▁شخصیات	-10.5021
▁گزار	-10.5021
▁وسطیٰ	-10.5023
▁1986	-10.5025
▁ٹانگ	-10.5032
▁اولڈ	-10.504
یڈس	-10.5042
▁بائی	-10.5043
▁فضائیہ	-10.5043
▁پیر	-10.5044
منڈ	-10.505
▁رہائی	-10.5053
کاری	-10.5056
▁پوائنٹس	-10.5057
▁رہے۔	-10.5072
▁ویو	-10.5094
▁سہ	-10.51
▁رجسٹر	-10.5103
یچ	-10.5103
متوفی	-10.5113
▁ارسطو	-10.5113
▁بظاہر	-10.5113
▁صبح	-10.5113
▁فعل	-10.5113
▁مفید	-10.5113
▁اسٹالن	-10.5114
▁پسندیدہ	-10.5115
▁لکھتے	-10.5115
▁1981	-10.5117
▁دیکھتے	-10.5121
▁سپیکٹرم	-10.5124
کول	-10.5132
▁مہمان	-10.5134
▁فنڈز	-10.5149
▁گرے	-10.5155
عام	-10.5158
▁فنون	-10.5164
▁چاند	-10.5182
04	-10.5187
▁کریں۔	-10.5193
▁والٹ	-10.5196
▁آپریٹنگ	-10.5207
▁اساتذہ	-10.5207
▁اسکندریہ	-10.5207
▁قرارداد	-10.5207
▁وکالت	-10.5207
▁اموات	-10.5207
▁توازن	-10.5207
▁شاندار	-10.5207
▁شور	-10.5208
▁1983	-10.521
▁1937	-10.521
▁اہل	-10.5211
▁جیکسن	-10.5212
▁نشستیں	-10.5215
▁رکھنا	-10.5215
▁سیاحوں	-10.5216
▁فیئر	-10.522
▁بچت	-10.522
▁اوپ	-10.5221
ation	-10.5225
▁سون	-10.5234
▁راستوں	-10.5238
▁لیٹر	-10.5241
▁موریس	-10.5249
یکو	-10.5254
لوم	-10.5258
bi	-10.5258
فون	-10.5272
گار	-10.5274
راڈ	-10.5278
انس	-10.5285
▁بنی	-10.5288
کور	-10.5294
▁سینٹی	-10.5299
▁الذکر	-10.5301
▁طیارہ	-10.5301
▁مؤخر	-10.5301
▁مانچسٹر	-10.5301
▁مقدمے	-10.5301
▁موافقت	-10.5301
▁چائلڈ	-10.5301
▁کنیکٹیکٹ	-10.5301
▁زمرے	-10.5301
▁ادوار	-10.5301
▁قبر	-10.5302
▁کرنسی	-10.5302
▁1968	-10.5305
▁ویڈیوز	-10.5315
▁انفرا	-10.5316
▁لڑی	-10.5319
▁اتار	-10.5327
بیس	-10.5349
▁نشست	-10.5351
▁گرانٹ	-10.5358
-10	-10.5376
▁La	-10.5386
نگس	-10.5386
▁طب	-10.5389
▁لفظی	-10.5393
▁انتھروپولوجی	-10.5396
▁انعقاد	-10.5396
▁جیفرسن	-10.5396
▁حصول	-10.5396
▁مملکت	-10.5396
▁نشوونما	-10.5396
▁نژاد	-10.5396
▁ٹورنامنٹ	-10.5396
▁آرکیٹیکچرل	-10.5397
▁سپورٹ	-10.5399
▁1953	-10.54
▁1910	-10.5401
▁نوازا	-10.5402
lu	-10.5406
▁رہی۔	-10.5409
▁اسٹوڈیوز	-10.5433
▁عہد	-10.544
لیب	-10.5444
▁ڈک	-10.5451
بون	-10.5453
▁مارے	-10.5454
▁کروز	-10.5466
یعنی	-10.548
▁پلا	-10.5489
▁پکڑ	-10.5491
α	-10.5492
▁ایجوکیشن	-10.5492
▁ظلم	-10.5492
▁قارئین	-10.5492
▁کابینہ	-10.5493
▁پیسہ	-10.5493
▁قائل	-10.5493
▁معاون	-10.5494
▁1922	-10.5495
▁1952	-10.5496
▁ایرینا	-10.5498
▁بھیجے	-10.5502
▁1880	-10.5505
▁all	-10.5511
▁بڑھتا	-10.5513
▁لیپ	-10.5513
اوا	-10.5526
وٹو	-10.5533
▁لانے	-10.5535
▁پہنا	-10.5541
▁ڈیٹ	-10.5559
▁بنتی	-10.5573
میٹر	-10.5583
ː	-10.559
▁تشویش	-10.559
▁جدت	-10.559
▁خطوط	-10.559
▁جرنل	-10.559
▁طبقات	-10.559
▁کنیکٹر	-10.559
▁نامیاتی	-10.5591
▁چوتھائی	-10.5592
▁بازی	-10.5593
▁نکالنے	-10.5597
▁صلیب	-10.5599
ant	-10.56
▁سننے	-10.5612
▁پیلے	-10.5612
دھا	-10.5612
▁مسیحی	-10.5617
شل	-10.562
▁ریف	-10.5622
▁سفارتی	-10.5625
▁پیلس	-10.5625
▁ریت	-10.5627
شپ	-10.5628
▁بلند	-10.5632
▁مارکس	-10.5633
▁سمر	-10.5641
لوں	-10.5644
▁پروگرامنگ	-10.5662
▁قوموں	-10.5682
▁سوشل	-10.5683
▁حساس	-10.5686
▁1956	-10.5688
▁افغانستان	-10.5688
▁دروازے	-10.5688
▁شائقین	-10.5688
▁گیارہویں	-10.5688
▁برسوں	-10.5688
▁ورجل	-10.5688
▁44	-10.5688
▁ہینری	-10.5689
▁کوارٹر	-10.569
▁وائرس	-10.5707
▁کورسز	-10.5712
▁مزدوروں	-10.5713
▁تنگ	-10.5716
ٹڈ	-10.5717
▁سرپرستی	-10.5726
▁کردی۔	-10.5728
▁پابندیوں	-10.575
▁ایجنٹ	-10.5758
ly	-10.5783
▁تفہیم	-10.5787
▁ریفرنڈم	-10.5787
▁محاصرے	-10.5787
▁معاشروں	-10.5787
▁سامورائی	-10.5787
▁شعور	-10.5787
▁چیمبر	-10.5787
▁چمک	-10.5787
▁گہرائی	-10.5788
▁اسسٹنٹ	-10.5788
▁اسپیڈ	-10.5789
▁سہرا	-10.5791
▁بھیجنے	-10.5792
▁سیکنڈری	-10.5796
انٹ	-10.5801
▁ویز	-10.5807
▁منہ	-10.5813
▁راہبوں	-10.5814
▁کریم	-10.582
▁اناج	-10.5823
▁والٹر	-10.5825
▁نیورو	-10.5827
▁برادریوں	-10.5863
▁گلو	-10.5872
▁وائر	-10.5877
▁لمبا	-10.5885
▁برصغیر	-10.5887
▁حجم	-10.5887
▁صوبائی	-10.5887
▁لطف	-10.5887
▁نیویگیشن	-10.5887
▁دھوکہ	-10.5887
▁انگیز	-10.5887
▁مورخ	-10.5888
▁1936	-10.589
▁خبر	-10.5894
▁ڈیکو	-10.5898
▁بینکوں	-10.5901
▁100،000	-10.5902
▁نکلا	-10.5903
▁ہور	-10.5904
▁فائرنگ	-10.5911
▁کالجوں	-10.5922
▁جانشینی	-10.5927
▁1.	-10.5928
نیو	-10.593
▁مہا	-10.5932
▁داخلے	-10.5933
▁ہڈیوں	-10.5938
▁گردی	-10.5938
▁عقل	-10.5943
▁پچ	-10.5945
▁وفادار	-10.5952
ٹور	-10.5953
لت	-10.5954
▁گراف	-10.5982
▁فیکٹری	-10.5982
گیٹ	-10.5983
کٹو	-10.5985
سکو	-10.5986
▁الکحل	-10.5988
▁برآں	-10.5988
▁برداشت	-10.5988
▁بپتسمہ	-10.5988
▁پیشرفت	-10.5988
▁یوئیفا	-10.5988
▁یوآن	-10.5988
▁الفریڈ	-10.5988
▁نمونوں	-10.5988
▁گیند	-10.5988
▁مونیکا	-10.5989
▁خریدنے	-10.5991
▁دلیل	-10.5992
فارم	-10.5998
▁بالٹک	-10.5999
,6	-10.6
▁مانگ	-10.6001
▁پلیس	-10.6009
▁ایٹن	-10.6023
▁امور	-10.6029
▁میسن	-10.6032
▁پھولوں	-10.6045
▁بندوق	-10.6045
▁زبانی	-10.6056
▁منطق	-10.6064
ers	-10.607
▁سجاوٹ	-10.609
▁قلعہ	-10.609
▁قونصل	-10.609
▁مقابلوں	-10.609
▁متفق	-10.609
▁پٹھوں	-10.609
▁گلاس	-10.6091
▁صفائی	-10.6094
▁سیلاب	-10.6097
▁صلاحیتوں	-10.6097
▁کوششیں	-10.6098
▁چلے	-10.6098
▁جڑیں	-10.6101
▁لاما	-10.6106
▁ٹرائ	-10.6122
▁تھائی	-10.6136
▁بٹن	-10.6137
▁پرانا	-10.6138
یٹک	-10.6144
▁آربر	-10.6146
نگٹن	-10.615
▁دشمنی	-10.6161
تھین	-10.6164
ستان	-10.6171
▁آسمان	-10.6178
پری	-10.6182
▁10،000	-10.6183
▁حسی	-10.6185
▁چپ	-10.619
▁اقتصادی	-10.6193
▁ایریزونا	-10.6193
▁سینکڑوں	-10.6193
▁براڈوے	-10.6193
▁میکانزم	-10.6193
▁گٹار	-10.6193
▁اچھا	-10.6193
▁اسپتال	-10.6193
▁مہایان	-10.6194
▁ہڈسن	-10.6194
▁1943	-10.6197
▁خطاب	-10.6197
▁اینجلس	-10.6199
da	-10.6222
▁یونیورسٹیاں	-10.6227
▁بد	-10.6232
▁مہمات	-10.6238
▁ایکشن	-10.6242
▁داریوں	-10.6244
▁میکس	-10.6246
▁کالم	-10.6252
ell	-10.6266
▁باغ	-10.6269
▁مثالوں	-10.6283
▁بون	-10.6284
▁نامے	-10.6287
▁پیغام	-10.6292
▁گریگوری	-10.6294
گوٹ	-10.6296
▁سیپ	-10.6297
▁تاجپوشی	-10.6297
▁تنخواہ	-10.6297
▁تھوڑا	-10.6297
▁راجستھان	-10.6297
▁سکاٹش	-10.6297
▁مسابقتی	-10.6297
▁ہدایات	-10.6297
▁ہوجاتی	-10.6297
▁دربار	-10.6297
▁کروائی	-10.6298
▁جلا	-10.6299
▁سنیما	-10.6299
▁IV	-10.63
▁1955	-10.6301
▁ہموار	-10.6301
▁1876	-10.6303
▁اسکین	-10.6307
▁علموں	-10.631
▁آرگن	-10.632
▁نیٹو	-10.6322
▁برڈ	-10.6331
▁الیکٹرانکس	-10.6333
سپر	-10.6339
▁تحریروں	-10.6346
▁اوپن	-10.6346
▁سینیٹر	-10.6362
ریز	-10.6364
▁فنکار	-10.6382
▁میو	-10.6382
▁شوز	-10.6382
▁ساتھیوں	-10.6391
کوٹ	-10.6396
▁میونسپل	-10.6398
ث	-10.6401
▁چل	-10.6401
▁امیگریشن	-10.6402
▁اچھے	-10.6402
▁اکٹھا	-10.6402
▁براؤزر	-10.6402
▁ینالاگ	-10.6402
▁اتوار	-10.6403
▁پائیدار	-10.6406
▁پبوں	-10.6407
▁اندراج	-10.6408
▁رجسٹرڈ	-10.6412
▁دائرے	-10.6413
4،000	-10.6416
▁حاضری	-10.6417
▁نیدرلینڈز	-10.6421
ab	-10.6426
▁کانفرنسنگ	-10.6428
▁رے	-10.6434
▁لائٹنگ	-10.6435
▁فیری	-10.6443
جین	-10.6451
▁کھا	-10.6474
▁اتر	-10.6477
▁انڈین	-10.6477
▁ماری	-10.6489
▁ڈسکس	-10.6489
▁بروک	-10.6491
▁ہینڈ	-10.6492
▁اثاثوں	-10.6509
▁صحارا	-10.6509
▁کروموسوم	-10.6509
▁1931	-10.6509
▁نچلی	-10.6509
▁پھینک	-10.6509
▁بکنگھم	-10.6509
▁آبادکاری	-10.651
▁مینوفیکچررز	-10.6511
▁ڈپٹی	-10.6512
▁مونٹینی	-10.6515
▁کوڈنگ	-10.6516
▁1800	-10.6517
▁سار	-10.6519
▁رسل	-10.6522
▁کشش	-10.6523
ورٹ	-10.6525
5)	-10.6526
▁کھولی	-10.6529
▁جولین	-10.6529
▁ٹریننگ	-10.6534
▁گردش	-10.6541
▁مشی	-10.6543
▁ٹیگ	-10.6544
900	-10.6554
▁جنگجو	-10.656
▁نان	-10.6561
وچ	-10.657
▁ریورس	-10.6591
io	-10.6598
▁ملے	-10.6599
▁لیڈر	-10.6603
▁پون	-10.6612
▁کھینچ	-10.6612
▁تابع	-10.6616
▁ماخذ	-10.6616
▁معاملہ	-10.6616
▁کھڑی	-10.6616
▁یوراگوئے	-10.6616
▁مغل	-10.6616
▁لبنان	-10.6616
▁نادر	-10.6618
▁براڈ	-10.6619
▁1954	-10.662
▁گریمی	-10.662
▁ترکیب	-10.6629
▁مریضوں	-10.6634
▁داروں	-10.6637
▁بڑھنے	-10.6639
▁کھیلتے	-10.6643
ینس	-10.665
▁ہوکر	-10.6655
یئم	-10.6657
▁میگ	-10.666
ec	-10.6674
کوف	-10.668
▁سائبر	-10.6701
▁سائنسز	-10.6711
▁محرک	-10.672
▁بائ	-10.672
ِ	-10.6725
▁ارتقائی	-10.6725
▁اشارے	-10.6725
▁افزائش	-10.6725
▁انڈونیشیا	-10.6725
▁اوسطاً	-10.6725
▁عبرانی	-10.6725
▁فائبر	-10.6725
▁منصفانہ	-10.6725
▁پرتشدد	-10.6725
▁1957	-10.6725
▁کنڈکٹر	-10.6725
▁مادی	-10.6726
▁اہلیہ	-10.6726
▁سٹریٹ	-10.6726
▁سنٹرل	-10.673
▁کینسر	-10.673
ڈٹ	-10.6735
▁رہنمائی	-10.6736
▁پینٹنگز	-10.6739
▁فلور	-10.6741
ya	-10.6743
▁فنڈنگ	-10.6747
▁رالی	-10.675
▁میز	-10.6751
▁آپریشنل	-10.6756
▁اڑا	-10.676
▁واٹ	-10.6762
▁فرار	-10.6765
▁باروک	-10.6767
▁جاز	-10.6786
▁برطرف	-10.68
ولو	-10.6819
▁اسٹراسبرگ	-10.6835
▁انچارج	-10.6835
▁لائبیریا	-10.6835
▁متعدی	-10.6835
▁مائع	-10.6835
▁ڈزنی	-10.6835
▁قبرستان	-10.6835
tes	-10.6837
▁برفانی	-10.6838
▁گھومنے	-10.6838
▁1946	-10.6838
▁ہول	-10.6839
▁1965	-10.684
che	-10.6845
▁ترقیاتی	-10.6848
▁ایری	-10.6849
▁1840	-10.685
▁رام	-10.6852
▁خرید	-10.6859
▁چھپا	-10.686
▁گرنے	-10.6862
▁مسٹر	-10.6863
▁گاڑیوں	-10.6882
▁سونگ	-10.6883
▁نظاموں	-10.6885
▁راکٹ	-10.6896
▁شیٹ	-10.6905
▁سطحوں	-10.6908
▁زبردست	-10.692
▁گلیڈ	-10.6922
▁پہنچی	-10.6927
سپین	-10.6929
▁کوئین	-10.6933
▁دشواری	-10.6946
▁مدافعتی	-10.6946
▁والنسین	-10.6946
▁الپائن	-10.6946
▁بیشتر	-10.6946
▁دیکھا۔	-10.6947
▁چربی	-10.6947
▁پرچم	-10.6948
▁خوف	-10.695
▁1938	-10.6951
▁1912	-10.6951
▁کھولنے	-10.6951
▁1913	-10.6952
▁1870	-10.6956
▁the	-10.6958
▁فائنلسٹ	-10.6959
▁لڑا	-10.6962
▁جوڑا	-10.6963
▁تپ	-10.6963
▁ٹریل	-10.6983
▁فرقے	-10.6984
▁خاصیت	-10.6988
▁زیڈ	-10.6995
▁فلائٹ	-10.6995
▁امدادی	-10.7001
▁ایرو	-10.7011
نوٹ	-10.7011
▁فصل	-10.7021
▁جیل	-10.7032
▁ابو	-10.704
▁جائز	-10.7044
▁بدترین	-10.7058
▁تاجکستان	-10.7058
▁تعامل	-10.7058
▁تقویت	-10.7058
▁وزراء	-10.7058
▁ڈھال	-10.7058
▁کھڑے	-10.7058
▁ہڑتال	-10.7058
▁منچو	-10.7058
▁اسپیکر	-10.7058
▁جوآن	-10.7058
▁سیارے	-10.7058
▁علوم	-10.7058
▁گھاس	-10.7059
▁VII	-10.7062
▁1942	-10.7063
▁کنکشن	-10.7064
▁آلے	-10.7075
▁ٹیلر	-10.7076
جز	-10.7078
▁پرنٹنگ	-10.708
+	-10.7083
▁بستیوں	-10.7106
▁شان	-10.7108
▁صنعتوں	-10.7114
▁آئے۔	-10.7122
▁مڈل	-10.7125
▁ہیری	-10.7129
ot	-10.7129
▁وول	-10.7134
بال	-10.7138
▁گینگ	-10.7159
▁ہاؤسنگ	-10.7159
▁سنی	-10.7169
▁استثنا	-10.7172
▁سوئچ	-10.7172
▁عقیدت	-10.7172
▁نمٹنے	-10.7172
▁ٹرانزسٹر	-10.7172
▁گھنٹوں	-10.7172
ν	-10.7172
▁مرکری	-10.7172
▁آرائش	-10.7173
▁فنکارانہ	-10.7173
▁فضلہ	-10.7174
▁1919	-10.7176
▁1959	-10.7177
▁آرٹیکل	-10.7178
▁گزرنے	-10.7178
▁مخالفین	-10.7187
3،000	-10.7194
▁پیروکاروں	-10.7202
▁ٹیوب	-10.7204
▁(15	-10.7212
▁ڈوب	-10.7215
نوس	-10.7242
اکس	-10.7244
ru	-10.7244
con	-10.7259
▁چینیوں	-10.7268
▁آکسفورڈ	-10.7287
▁گھوڑے	-10.7287
▁ہوجاتے	-10.7287
▁1861	-10.7287
▁سکھایا	-10.7287
ι	-10.7287
▁مادے	-10.7287
▁اسٹیفن	-10.7287
▁انگوٹی	-10.7287
▁کلارک	-10.7287
▁مقدونیہ	-10.7288
▁فرینکلن	-10.7288
▁پہنتے	-10.7289
▁بیساو	-10.7292
▁گاہوں	-10.7293
▁فائی	-10.7294
میگنیٹ	-10.7296
▁یورپیوں	-10.7304
▁کرلیا۔	-10.7312
▁کتا	-10.7339
▁ٹاورز	-10.7342
▁چینلز	-10.7349
▁شہریت	-10.7354
▁عثمانیوں	-10.7357
▁تفریح	-10.7378
▁Ch	-10.7382
▁نیدرلینڈ	-10.7383
▁مشنری	-10.7385
▁ثانی	-10.7395
▁ستم	-10.7402
XNUMX	-10.7403
▁1947	-10.7403
▁اصرار	-10.7403
▁دیوالیہ	-10.7403
▁مناظر	-10.7403
▁میکینٹوش	-10.7403
▁نباتات	-10.7403
▁نفاذ	-10.7403
▁چودہویں	-10.7403
▁جارہی	-10.7403
▁نیویارک	-10.7403
▁کرایہ	-10.7403
▁درکار	-10.7403
▁دکھائے	-10.7404
▁نیند	-10.7404
▁موجد	-10.7406
▁دکھائی	-10.7406
▁اعصابی	-10.7407
▁1962	-10.7407
▁1925	-10.7408
▁ٹٹو	-10.7412
ٹیٹ	-10.7417
▁1830	-10.7418
▁ہاکی	-10.7418
▁نشانات	-10.7422
7،000	-10.7424
▁سوویتوں	-10.7427
▁حکمرانوں	-10.7431
سلاو	-10.7441
وسس	-10.7453
▁لوس	-10.7456
▁گز	-10.7457
خاص	-10.7466
▁حکومتی	-10.7472
mp	-10.748
od	-10.7485
▁لینا	-10.7501
▁بنا۔	-10.7512
▁جاپانیوں	-10.7512
▁شاخوں	-10.7514
▁منصب	-10.7521
▁تبصرہ	-10.7521
▁دھارے	-10.7521
▁سپلائی	-10.7521
▁قاعدہ	-10.7521
▁ممنوع	-10.7521
▁وابستگی	-10.7521
▁گھنٹہ	-10.7521
▁نامعلوم	-10.7521
▁سنہری	-10.7521
▁ہلکے	-10.7522
▁جملے	-10.7522
▁کردیئے	-10.7523
▁کھاتے	-10.7523
▁چکر	-10.7524
▁دق	-10.7526
▁بائیں	-10.753
▁1890	-10.7531
▁چیزیں	-10.7545
▁تخلیقی	-10.7557
▁مردہ	-10.7557
▁ایٹمی	-10.7567
▁لاجز	-10.7576
▁کھل	-10.7577
tor	-10.758
▁پہنچا۔	-10.7581
▁خوش	-10.7584
▁ہاس	-10.7596
▁بھائیوں	-10.7606
au	-10.7611
▁ریجن	-10.7615
▁لائنیں	-10.762
▁نیوی	-10.7632
▁ایڈی	-10.7636
▁وہیل	-10.7639
▁بوناپارٹ	-10.764
▁فسادات	-10.764
▁لیفٹیننٹ	-10.764
▁ڈنمارک	-10.764
▁گریجویشن	-10.764
▁اوباما	-10.764
▁اینگلیکن	-10.764
▁بلقان	-10.764
▁ہوچکی	-10.764
▁انٹرویو	-10.764
▁رومانوی	-10.764
▁ماڈیول	-10.764
▁بادل	-10.764
▁محور	-10.764
▁ایڈمرل	-10.764
▁اسہال	-10.7641
▁بناء	-10.7642
▁پگھلنے	-10.7642
▁عبدال	-10.7642
▁کیوبا	-10.7643
▁اخلاقیات	-10.7646
▁کھلی	-10.7667
▁بلاکس	-10.7679
▁وفاداری	-10.7682
▁جونز	-10.7711
▁امیدواروں	-10.7715
پان	-10.7715
یانگ	-10.7722
ترا	-10.7731
▁بدنام	-10.7735
gu	-10.7744
▁ولیمز	-10.7752
▁متغیر	-10.7757
▁راج	-10.7758
▁ناراض	-10.7759
ہین	-10.776
▁تصفیہ	-10.776
▁دھکیل	-10.776
▁نمائندے	-10.776
▁حیات	-10.776
▁کیوبزم	-10.776
▁مزاج	-10.7761
▁آرگنائزیشن	-10.7761
▁ابتداء	-10.7761
▁فائز	-10.7762
▁مفادات	-10.7762
▁ملیشیا	-10.7762
▁یکم	-10.7764
▁بنگال	-10.7765
▁قیمتی	-10.7766
▁فوسل	-10.7767
▁سربیا	-10.7773
▁1500	-10.7789
op	-10.7799
0,000	-10.7807
▁کلور	-10.7808
▁تحریکوں	-10.781
▁اسٹیو	-10.7814
▁نمو	-10.7828
ke	-10.7828
▁فرقوں	-10.7844
▁آرائی	-10.7847
سیٹ	-10.7851
پلی	-10.7857
بعد	-10.7861
▁اسکالر	-10.7861
▁بارہ	-10.7864
▁تیر	-10.787
ویئر	-10.7875
-3	-10.788
لامحدود	-10.7882
▁انتباہ	-10.7882
▁روزمرہ	-10.7882
▁گہرے	-10.7882
▁1927	-10.7882
▁مجھے	-10.7882
▁پتلی	-10.7882
▁سویڈن	-10.7882
▁ٹرام	-10.7883
▁جملہ	-10.7884
▁لکیری	-10.7884
▁تولید	-10.7887
▁تائی	-10.7892
▁لسانیات	-10.7892
▁فونٹ	-10.7892
▁لہروں	-10.7894
▁نالی	-10.79
▁رسی	-10.7901
جسے	-10.7904
▁بلو	-10.7905
ans	-10.791
▁لیڈی	-10.791
یئنز	-10.7912
▁وولٹ	-10.7914
ang	-10.7917
▁Al	-10.7917
▁فصلوں	-10.7922
▁ایون	-10.7925
▁ناک	-10.7929
▁برو	-10.7934
▁ہوں۔	-10.7939
▁ٹیپ	-10.7942
▁انڈر	-10.7945
▁سنگلز	-10.796
Pa	-10.7968
▁کھیلے	-10.7972
▁دہی	-10.7991
بشمول	-10.7995
▁افادیت	-10.8006
▁ایتھوپیا	-10.8006
▁فرنچائز	-10.8006
▁مثلث	-10.8006
▁محاذ	-10.8006
▁مرطوب	-10.8006
▁گنجائش	-10.8006
▁پندرہویں	-10.8006
▁کمپیکٹ	-10.8006
▁ونڈسر	-10.8006
▁ناممکن	-10.8006
▁ڈرامہ	-10.8006
▁مایوس	-10.8006
▁ریسلنگ	-10.8007
▁پہننے	-10.8009
▁قوس	-10.801
▁1911	-10.801
▁1934	-10.8012
▁کنٹرولر	-10.8012
▁آرکی	-10.8013
▁فرمان	-10.8014
▁سنگین	-10.8016
▁تنقیدی	-10.802
▁فلمی	-10.8027
▁سیکس	-10.8033
▁باغیوں	-10.8039
▁تینوں	-10.8039
▁تم	-10.8042
▁کھیلتی	-10.8043
▁واقعی	-10.8048
▁ڈاٹ	-10.8048
▁چوری	-10.8053
▁گیر	-10.8054
ایل	-10.8061
▁سنت	-10.8082
▁ماسکو	-10.8087
▁ایپی	-10.8089
فن	-10.81
▁ڈپ	-10.8102
▁قبائلی	-10.8109
▁ہاؤسز	-10.8116
▁رائٹس	-10.8119
ry	-10.8125
▁ملازم	-10.8126
▁آکسیجن	-10.8131
▁قاصر	-10.8131
▁قطع	-10.8131
▁انفارمیشن	-10.8131
▁رگبی	-10.8131
▁سباق	-10.8131
▁پلاسٹک	-10.8131
▁سیاق	-10.8131
▁بروکلین	-10.8132
▁جلتی	-10.8133
03	-10.8135
▁ستنداریوں	-10.8139
▁کینٹن	-10.8145
▁ایش	-10.8158
▁میٹنگ	-10.8161
▁کارگو	-10.8165
▁1،	-10.8166
▁عہدوں	-10.8179
▁موسمی	-10.818
▁3.	-10.8193
▁ساختی	-10.8194
▁ووٹنگ	-10.8199
▁ارل	-10.8227
▁مشیر	-10.8227
▁لوٹ	-10.8232
فری	-10.8233
▁امپ	-10.8243
▁گھوم	-10.8253
ٰ	-10.8253
▁موم	-10.8257
á	-10.8257
ο	-10.8257
▁1909	-10.8257
▁بریگیڈ	-10.8257
▁روزویلٹ	-10.8257
▁شرکاء	-10.8257
▁شکایت	-10.8257
▁لیورپول	-10.8257
▁گورباچوف	-10.8257
▁آتش	-10.8257
▁کیمسٹری	-10.8257
▁ریٹائر	-10.8257
▁شاذ	-10.8257
▁داغ	-10.8258
▁ڈوم	-10.8258
▁پرسکون	-10.8258
▁جلتے	-10.8259
▁ہٹلر	-10.8259
▁اڑنے	-10.8261
▁1929	-10.8262
▁بچایا	-10.8264
▁اگلی	-10.8266
▁سوالات	-10.8274
▁کانسی	-10.8277
▁قرضوں	-10.8278
rt	-10.828
▁بینر	-10.8289
▁مرنے	-10.8296
▁ایبل	-10.8301
bo	-10.8306
▁ملنے	-10.831
▁ڈیجی	-10.8315
▁فلسفیوں	-10.8336
▁ڈرا	-10.834
▁برتن	-10.8349
▁سینٹرل	-10.8353
ائڈس	-10.8357
▁گرافی	-10.8366
▁اعمال	-10.8385
▁تعاقب	-10.8385
▁زلزلہ	-10.8385
▁نمائندہ	-10.8385
▁کنفیڈریٹ	-10.8385
-15	-10.8386
▁پوچھ	-10.8388
▁کیپلا	-10.8389
▁1924	-10.8389
▁ریویو	-10.839
▁ریئل	-10.839
▁1933	-10.8391
▁(6	-10.8392
کوپ	-10.8393
▁ڈاون	-10.8393
▁اٹھانے	-10.8393
▁آجر	-10.8394
▁گنتی	-10.8396
▁نامہ	-10.8423
▁گھرا	-10.8428
فرا	-10.8433
▁عقلی	-10.8443
6،000	-10.8446
▁نیپ	-10.8459
100	-10.846
and	-10.8461
▁لائٹس	-10.8469
▁ٹائی	-10.8497
▁کارکن	-10.8515
▁ارادے	-10.8515
▁انسائیکلوپیڈیا	-10.8515
▁بھارت	-10.8515
▁تبادلے	-10.8515
▁دہندگان	-10.8515
▁ریزولوشن	-10.8515
▁نصاب	-10.8515
▁ٹکڑوں	-10.8515
▁ڈپارٹمنٹ	-10.8515
▁جاسکتے	-10.8515
▁پائپ	-10.8515
▁قطر	-10.8515
▁وائلڈ	-10.8515
▁موزوں	-10.8516
▁ٹیکنک	-10.8519
▁1951	-10.852
▁سمجھتا	-10.8521
▁عہدہ	-10.8526
▁چارلز	-10.8528
▁میسنک	-10.8529
▁پرائم	-10.853
▁De	-10.8532
▁کہا۔	-10.8532
▁ڈیسک	-10.8542
▁میچوں	-10.8543
▁آرکائیوز	-10.8552
▁800	-10.8562
ویچ	-10.8568
▁2.	-10.8576
▁ہب	-10.8588
▁رینک	-10.8589
▁بلندی	-10.859
▁ریکارڈوں	-10.8591
2،000	-10.8594
▁ہاک	-10.8597
res	-10.8635
▁کینیڈی	-10.8637
ɪ	-10.8647
▁رضاکارانہ	-10.8647
▁مسجد	-10.8647
▁لڑکوں	-10.8647
▁عصر	-10.8647
▁گھیر	-10.8647
▁کرافٹ	-10.8647
▁سوڈان	-10.8648
ولوجیکل	-10.8651
▁فیملی	-10.8651
▁پانچواں	-10.8653
▁ہوگئیں۔	-10.8657
▁سنبھالنے	-10.866
▁پنکھوں	-10.8673
-16	-10.8675
▁کاؤنٹر	-10.8687
br	-10.869
▁بچا	-10.8698
▁بمبار	-10.8709
ونا	-10.8722
▁تاروں	-10.8727
▁طرفہ	-10.8731
ill	-10.8742
▁تہواروں	-10.8744
▁گلیشیئر	-10.876
▁ٹینک	-10.8765
▁(8	-10.8765
▁سازوں	-10.8765
جنگ	-10.8771
▁لتھوانیا	-10.8778
▁کامکس	-10.878
▁آدھے	-10.878
▁مجسمے	-10.878
▁ملائیشیا	-10.878
▁پنسلوانیا	-10.878
▁انصاف	-10.878
▁لڑکیوں	-10.878
▁ویٹیکن	-10.878
▁مجرمانہ	-10.8781
▁پیسے	-10.8781
▁بیلجیم	-10.8782
▁دوستانہ	-10.8782
▁MP	-10.8785
▁گلوبل	-10.8788
▁1853	-10.879
▁لائے	-10.879
▁1848	-10.8791
▁لینگ	-10.8795
▁فورم	-10.8803
▁میلان	-10.8806
▁قدمی	-10.8818
ist	-10.8824
▁پہن	-10.8829
▁(10	-10.8829
▁بیکر	-10.8846
-4	-10.8848
بورو	-10.8861
▁اڑ	-10.8875
▁ماؤ	-10.8878
▁سوٹ	-10.8881
▁راہب	-10.8884
▁جیتے	-10.8889
▁مالیکیول	-10.8904
▁مختص	-10.8904
▁سرحدی	-10.891
▁اختلاف	-10.8911
▁ارجنٹائن	-10.8915
▁جھنڈا	-10.8915
▁فیصلوں	-10.8915
▁محروم	-10.8915
▁مشاورت	-10.8915
▁نقشہ	-10.8915
▁ورثہ	-10.8915
▁کھڑکی	-10.8915
▁1907	-10.8915
▁ایکسپریس	-10.8915
▁ہمارے	-10.8915
▁پروسیسر	-10.8915
▁سسلی	-10.8916
▁ٹھیک	-10.8916
▁خوراک	-10.8916
▁میڈرڈ	-10.8916
▁برائن	-10.8916
▁نامیبیا	-10.8916
لوجسٹ	-10.8917
▁پرامن	-10.8918
▁ہسٹری	-10.8918
▁تنظیمیں	-10.8929
▁200،000	-10.8934
▁گلیشیئرز	-10.8936
ہاں	-10.8937
▁250	-10.8941
▁ماڈلز	-10.8949
▁لفٹیں	-10.8949
▁ریفری	-10.897
▁پلاٹ	-10.8974
ber	-10.8986
que	-10.8997
▁پیٹرک	-10.9
▁شاہ	-10.9021
▁حفاظتی	-10.9027
▁کیمیکل	-10.9033
▁بالغوں	-10.9048
▁عربوں	-10.9049
▁موری	-10.905
og	-10.905
ī	-10.9052
▁ASCII	-10.9052
▁اطمینان	-10.9052
▁اونچے	-10.9052
▁ایمسٹرڈیم	-10.9052
▁تجاوز	-10.9052
▁حصص	-10.9052
▁فیمیکوم	-10.9052
▁مراعات	-10.9052
▁مکوڑوں	-10.9052
▁ٹکڑا	-10.9052
▁ہجوم	-10.9052
▁خوشحال	-10.9052
▁الجھن	-10.9053
▁اوزار	-10.9053
▁ٹیونز	-10.9053
▁اٹھائے	-10.9053
▁آئرن	-10.9054
▁آگاہ	-10.9055
▁اسٹیون	-10.9057
▁شاپنگ	-10.9058
▁ماپا	-10.9061
▁شرمن	-10.9062
▁1855	-10.9063
▁شیک	-10.9069
▁کریمیا	-10.9073
▁روکتا	-10.9074
▁ٹچ	-10.9075
▁دھاتی	-10.9085
▁راہ	-10.9087
▁اش	-10.91
▁کرانے	-10.9117
▁لنکن	-10.913
▁گرفتاری	-10.9144
▁فائلوں	-10.9144
پہلے	-10.9148
ard	-10.9156
▁ذیل	-10.9166
آرکیٹیکچر	-10.919
▁بھاپ	-10.9191
▁تحسین	-10.9191
▁دائیں	-10.9191
▁سمفونی	-10.9191
▁مشورے	-10.9191
▁ناپسندیدہ	-10.9191
▁پبلشر	-10.9191
▁پیچیدگی	-10.9191
▁لاکھوں	-10.9191
▁نیپولین	-10.9192
▁چاول	-10.9192
▁فہم	-10.9193
▁کیریبین	-10.9194
▁توڑنے	-10.9199
▁مالیکیولر	-10.9203
▁لوئی	-10.9209
▁تفصیلی	-10.921
▁دیکھتا	-10.921
▁بریک	-10.9219
▁سمجھا۔	-10.9223
▁روٹر	-10.9242
▁گلیوں	-10.9256
,000،	-10.9263
ادی	-10.9265
▁وارڈ	-10.9276
▁ہونی	-10.928
▁پیٹرن	-10.9281
لیکن	-10.9282
▁دھاتوں	-10.9292
▁شہرت	-10.9292
▁پیروکار	-10.9296
▁ڈرم	-10.9298
▁ڈیوس	-10.93
لاطینی	-10.9301
▁میٹل	-10.9303
▁ماحولیات	-10.9307
▁پٹی	-10.9319
▁آیا۔	-10.9323
▁اسٹریم	-10.9323
▁کاؤنٹ	-10.9324
▁حامل	-10.9324
λ	-10.9332
▁انفراسٹرکچر	-10.9332
▁ایئرکرافٹ	-10.9332
▁بازیافت	-10.9332
▁خواندگی	-10.9332
▁دعوے	-10.9332
▁شعبہ	-10.9332
▁علامات	-10.9332
▁ٹھنڈا	-10.9332
▁خراج	-10.9332
▁میکانکس	-10.9332
▁ایتھنز	-10.9332
▁سراغ	-10.9332
▁کیمبرج	-10.9332
▁مہلک	-10.9332
▁سبسڈی	-10.9333
▁جمناسٹکس	-10.9334
▁سوان	-10.9335
▁ڈسٹنی	-10.9335
▁گرڈ	-10.9337
▁فنگس	-10.9337
▁ورجن	-10.9338
▁واچ	-10.9339
▁شوہر	-10.934
▁1871	-10.9341
▁نوعمروں	-10.9347
▁ہٹنے	-10.9349
جیم	-10.9363
▁بیج	-10.9366
مبا	-10.9379
▁سیاحتی	-10.9388
▁کامل	-10.9398
▁ہورن	-10.94
vo	-10.9406
▁مزدور	-10.9413
▁چیمپئنز	-10.9413
▁مارکیٹنگ	-10.9417
▁جلاوطنی	-10.942
▁میڈل	-10.9421
▁چوٹیوں	-10.9435
یرو	-10.9447
حکومت	-10.9457
du	-10.9471
▁بانٹ	-10.9473
ς	-10.9475
▁بزرگ	-10.9475
▁دھماکہ	-10.9475
▁طرازی	-10.9475
▁طلاق	-10.9475
▁مارگریٹ	-10.9475
▁برتری	-10.9475
▁سویڈش	-10.9475
▁شیعہ	-10.9475
▁مادری	-10.9475
▁فائٹر	-10.9475
▁شریف	-10.9475
▁اندوز	-10.9475
▁دراز	-10.9475
▁گھرانوں	-10.9475
▁پرجوش	-10.9475
▁اسکواڈرن	-10.9475
▁ترجمان	-10.9475
▁خمیر	-10.9477
▁600	-10.9479
▁PS	-10.9484
▁صفت	-10.9489
▁لگے	-10.9494
▁کیمیکلز	-10.9496
▁حلف	-10.9505
▁نکالا	-10.951
کوپن	-10.9512
▁پیئر	-10.9522
لیف	-10.9523
▁تھامسن	-10.9526
▁مقررہ	-10.953
الک	-10.9536
▁ملا۔	-10.9544
▁کیریئرز	-10.9562
▁ہلز	-10.9564
ریاس	-10.9592
▁سرگرم	-10.9593
▁جات	-10.96
▁شیو	-10.9601
ھو	-10.9611
▁ہینڈل	-10.9617
▁بالادستی	-10.962
▁فیوژن	-10.962
▁چڑیا	-10.962
▁تضاد	-10.962
▁فخر	-10.962
▁سککوں	-10.962
▁فزکس	-10.962
▁قیاس	-10.962
▁ہلاکتوں	-10.962
▁لارنس	-10.962
▁ہیلنسٹک	-10.962
▁لچکدار	-10.962
▁ڈینس	-10.9622
▁سیکھا	-10.9623
▁وارنر	-10.9625
▁پہنے	-10.9628
▁1898	-10.963
▁مائیکرو	-10.9633
▁کلیسیا	-10.9634
▁سڑکیں	-10.9645
▁نووا	-10.9645
ism	-10.9645
▁میگا	-10.965
▁منطقی	-10.9656
▁امکانات	-10.9665
▁امام	-10.9667
لورین	-10.9669
▁معماروں	-10.9681
▁کھال	-10.9681
▁گولڈن	-10.97
▁پھٹ	-10.9703
▁دیوی	-10.9708
ٹیج	-10.9743
▁بیلی	-10.9765
▁باغی	-10.9766
▁اطراف	-10.9767
▁تجریدی	-10.9767
▁تنصیب	-10.9767
▁جارحانہ	-10.9767
▁سولہویں	-10.9767
▁ضائع	-10.9767
▁معاوضہ	-10.9767
▁مہینہ	-10.9767
▁ماڈرن	-10.9767
▁پالرمو	-10.9767
▁فوربس	-10.9767
▁دادا	-10.9767
▁پروڈکٹ	-10.9767
▁کروشیا	-10.9768
▁اینڈریو	-10.9768
میا	-10.9769
▁بستر	-10.9769
▁1928	-10.9771
▁ڈسٹ	-10.9774
▁کیپسیٹرز	-10.9778
▁استوا	-10.9784
▁پہچانا	-10.9789
▁وکٹر	-10.9797
lla	-10.9802
▁کریک	-10.9804
▁بمباروں	-10.9808
▁چیٹ	-10.9808
▁پلانک	-10.9813
▁بندوقوں	-10.982
▁نشستوں	-10.9824
▁برآمدات	-10.9829
pr	-10.9851
▁میدانوں	-10.9856
▁سازش	-10.9881
▁لگائی	-10.9886
ä	-10.9916
▁خوفزدہ	-10.9916
▁کنزرویٹو	-10.9916
▁کپڑوں	-10.9916
▁انخلا	-10.9916
▁پرجیوی	-10.9916
▁پھنس	-10.9917
▁مورفولوجی	-10.9917
▁دعا	-10.9917
▁ہارورڈ	-10.9918
▁پائن	-10.9919
▁چلائے	-10.9919
▁ہیومن	-10.992
▁لکھ	-10.9922
▁میڈیم	-10.9924
▁تیرہ	-10.9927
▁دلائی	-10.993
▁Re	-10.9934
▁Ro	-10.994
▁ڈیلٹا	-10.9941
,7	-10.9948
▁بینکنگ	-10.9962
▁ہاورڈ	-10.9975
▁لوپ	-10.9977
پارٹ	-10.998
▁بارٹس	-11.0001
▁کرایا۔	-11.0016
▁Se	-11.0017
be	-11.0029
▁دوستوں	-11.0035
▁کاسٹیل	-11.0044
ٹرم	-11.0058
▁باؤ	-11.0062
▁واقف	-11.0066
ه	-11.0068
▁اثنا	-11.0068
▁اپارٹمنٹ	-11.0068
▁جھنڈے	-11.0068
▁درحقیقت	-11.0068
▁دعووں	-11.0068
▁قیصر	-11.0068
▁محاصرہ	-11.0068
▁پوشیدہ	-11.0068
▁مندرجہ	-11.0068
▁مرضی	-11.0068
▁دودھ	-11.0068
▁گائیڈ	-11.0068
▁بیوہ	-11.0069
▁کاٹنے	-11.0071
▁ہارمون	-11.0071
▁دریں	-11.0072
▁ٹیلیفون	-11.0072
▁کاپٹر	-11.0074
▁لٹل	-11.0075
▁عین	-11.0075
وجین	-11.0077
▁مادیت	-11.0079
▁ہلکی	-11.008
▁ضمنی	-11.0081
▁پہاڑیوں	-11.0086
▁سود	-11.0091
▁برازیلیا	-11.0092
▁سچ	-11.0098
▁بلڈ	-11.0101
ay	-11.0109
غیر	-11.0111
▁170	-11.0114
▁جڑی	-11.012
▁رجحانات	-11.0137
▁اپنایا۔	-11.0143
لاؤ	-11.0157
▁گناہ	-11.0164
ev	-11.0169
▁47	-11.0174
▁ہرن	-11.0195
▁ڈچی	-11.0195
*	-11.0221
▁آکسائیڈ	-11.0221
▁انٹارکٹک	-11.0221
▁رقبہ	-11.0221
▁لمیٹڈ	-11.0221
▁مسیسیپی	-11.0221
▁منجمد	-11.0221
▁نقاد	-11.0221
▁کشیدگی	-11.0221
▁ہنگامی	-11.0221
▁یادداشت	-11.0221
ρ	-11.0222
▁آڈیشن	-11.0222
▁پلازہ	-11.0222
▁بیلاروس	-11.0222
▁نیشنز	-11.0222
▁مویشی	-11.0222
▁نظریے	-11.0222
▁گوتم	-11.0222
▁سٹائن	-11.0223
▁منیجر	-11.0224
▁دبانے	-11.0224
▁ریاضیاتی	-11.0224
▁1908	-11.0226
ES	-11.0228
وسکی	-11.0228
▁AD	-11.0229
▁1932	-11.0229
▁1854	-11.0231
▁میکرو	-11.0233
▁پینٹنگ	-11.0235
▁1810	-11.0236
▁پڑے	-11.0236
▁ملٹری	-11.0237
▁الٹرا	-11.0239
▁Ba	-11.0242
▁لاش	-11.0249
▁رہیں	-11.0252
▁اسکیل	-11.0261
ive	-11.0264
▁بھو	-11.0266
▁آبی	-11.0271
▁بربر	-11.0273
پیدائش	-11.0277
▁پروڈکشنز	-11.0278
▁دستیابی	-11.0281
▁بیمار	-11.0282
-12	-11.0289
▁لارڈز	-11.0297
▁تیس	-11.0301
▁سمندروں	-11.0318
ana	-11.0319
▁فارمیٹس	-11.0325
▁سیلز	-11.0333
▁جایا	-11.0355
▁بائیوٹک	-11.0359
▁122	-11.036
▁افسردگی	-11.0378
▁انشورنس	-11.0378
▁ایلومینیم	-11.0378
▁صوابدید	-11.0378
▁مباحثے	-11.0378
▁مدعو	-11.0378
▁اینلیڈس	-11.0378
▁بقا	-11.0378
▁بلایا	-11.0378
▁مجاز	-11.0378
▁دوگنا	-11.0378
▁ہیرالڈ	-11.0378
▁علامتوں	-11.0378
▁گاڑیاں	-11.0381
▁جارجیائی	-11.0382
▁سائمن	-11.0382
▁جوڑتی	-11.0384
▁بریوری	-11.0384
▁نائ	-11.0386
▁فریڈم	-11.0386
▁فوت	-11.0387
▁گیٹس	-11.0387
▁آپشن	-11.0394
▁جماعتیں	-11.0394
▁ارضیاتی	-11.0395
▁فلسطین	-11.0404
نون	-11.0406
▁یونٹوں	-11.0413
▁سیزر	-11.0427
NA	-11.0427
سابقہ	-11.045
▁فلپس	-11.0457
AC	-11.0483
▁شارٹ	-11.0489
▁مجرم	-11.0499
▁بریڈ	-11.0513
ale	-11.0515
EC	-11.0527
▁اجارہ	-11.0536
▁استحصال	-11.0536
▁اعتدال	-11.0536
▁اکنامک	-11.0536
▁بخود	-11.0536
▁سندھ	-11.0536
▁شاہراہ	-11.0536
▁غربت	-11.0536
▁لمبے	-11.0536
▁مکانات	-11.0536
▁میتھوڈسٹ	-11.0536
▁پلائموتھ	-11.0536
▁ادراک	-11.0536
▁آبدوز	-11.0536
▁انٹرسٹیٹ	-11.0536
▁وارث	-11.0538
▁اشتہارات	-11.054
▁مبصرین	-11.054
▁ڈیوٹی	-11.054
▁ایبیریا	-11.0541
▁گونج	-11.0541
▁1921	-11.0542
▁موزیکوں	-11.0543
▁پسندانہ	-11.0544
▁لوئر	-11.0544
فیلڈ	-11.0546
ica	-11.0555
▁خریدی	-11.0555
▁حسین	-11.0556
▁گلوکارہ	-11.0557
▁ہرٹز	-11.0557
]؛	-11.0561
▁چٹانوں	-11.0562
▁30،000	-11.0566
▁چوٹ	-11.0572
▁وائن	-11.0575
▁دیکھے	-11.0576
ینڈر	-11.0583
lis	-11.0586
▁وائڈ	-11.0587
▁ڈویژنوں	-11.0594
▁فیکٹریوں	-11.0596
▁جلاوطن	-11.0598
▁اسٹیپ	-11.0599
wa	-11.0611
▁متاثرین	-11.0613
▁فش	-11.0632
بلز	-11.0643
▁بنتے	-11.0646
▁فیم	-11.0653
▁مائن	-11.0661
▁کہانیوں	-11.0668
▁کرے۔	-11.0674
▁40،000	-11.0684
▁Schwarzenegger	-11.0698
▁XXIII	-11.0698
▁احاطے	-11.0698
▁احمد	-11.0698
▁اعضاء	-11.0698
▁افلاطون	-11.0698
▁اپوزیشن	-11.0698
▁بالواسطہ	-11.0698
▁تجاویز	-11.0698
▁تجزیے	-11.0698
▁تفتیش	-11.0698
▁ماتحت	-11.0698
▁مقالے	-11.0698
▁کمپیوٹنگ	-11.0698
▁1857	-11.0698
▁آرکٹک	-11.0698
▁کیٹالان	-11.0698
▁کنواری	-11.0698
▁فروش	-11.0698
▁پٹریوں	-11.0698
▁ریشوں	-11.0698
▁کیپیٹل	-11.0698
▁کرسمس	-11.0699
▁ہائپر	-11.0701
▁حساسیت	-11.0701
▁ایڈیسن	-11.0701
▁ٹائٹو	-11.0706
▁1849	-11.0708
▁جائزے	-11.0709
▁زہر	-11.0709
▁اداکارہ	-11.0713
▁کلچر	-11.0717
▁ڈیموکریٹس	-11.0717
▁نوشی	-11.0719
▁ٹکٹ	-11.0721
▁گزارا	-11.0721
▁پیرو	-11.0727
▁(11	-11.0727
▁1850	-11.0729
▁بیجوں	-11.0741
▁گرو	-11.0741
▁کرائے	-11.0743
▁حالتوں	-11.0746
▁اسٹرا	-11.0754
▁لیول	-11.0763
▁جانتے	-11.077
▁منعقدہ	-11.0783
▁ترکوں	-11.0784
▁ڈرائیور	-11.0784
com	-11.0789
▁کمائی	-11.0795
امریکی	-11.0804
▁رینڈ	-11.082
▁جوڑی	-11.0821
▁مائیک	-11.0823
▁سیاستدان	-11.0825
▁خودمختار	-11.0837
▁تاثر	-11.0841
κ	-11.0862
▁اعلامیہ	-11.0862
▁تبصرے	-11.0862
▁تشہیر	-11.0862
▁تمباکو	-11.0862
▁لطیفہ	-11.0862
▁متوازن	-11.0862
▁متوسط	-11.0862
▁مدرسوں	-11.0862
▁مسودہ	-11.0862
▁ممالیہ	-11.0862
▁پولرائزیشن	-11.0862
▁برانچ	-11.0862
▁زیلڈا	-11.0862
▁ٹووالو	-11.0862
▁کارپوریٹ	-11.0862
▁وائلن	-11.0862
▁پورٹیبل	-11.0862
▁پالتو	-11.0862
▁خاموش	-11.0862
▁فادر	-11.0862
▁مقدونیائی	-11.0862
▁ٹشو	-11.0864
▁تاریک	-11.0866
▁پکڑنے	-11.0869
▁گزرتا	-11.0871
▁رپورٹس	-11.0876
▁1865	-11.0877
▁ڈومینک	-11.0882
▁جوہان	-11.0887
▁20،000	-11.0894
▁شاخیں	-11.0896
▁پیوس	-11.0897
per	-11.0899
▁ہس	-11.0906
▁کرکٹ	-11.0911
▁ٹونی	-11.0913
tion	-11.092
▁میسی	-11.0927
▁سرحدوں	-11.093
▁سلور	-11.0932
▁درمیانے	-11.0935
▁فریڈی	-11.0943
بنگ	-11.0956
▁نیوٹن	-11.0971
▁آئیں	-11.099
▁ڈیموکریٹ	-11.0998
مینڈ	-11.1016
▁ایڈم	-11.1017
/'	-11.1018
fe	-11.1019
ɛ	-11.1028
▁تسلط	-11.1028
▁تعصب	-11.1028
▁تناظر	-11.1028
▁خلاصہ	-11.1028
▁رواداری	-11.1028
▁ریگولیٹری	-11.1028
▁سکندر	-11.1028
▁عجائب	-11.1028
▁قحط	-11.1028
▁قلعوں	-11.1028
▁مراٹھا	-11.1028
▁مکوڑے	-11.1028
▁چاہے	-11.1028
▁گھوڑوں	-11.1028
▁ہیمپشائر	-11.1028
τ	-11.1028
▁کرسچن	-11.1028
▁الہام	-11.1028
▁ریزورٹ	-11.1028
▁خادم	-11.1028
▁انسٹال	-11.1029
▁ٹیکسٹائل	-11.1029
▁دیہات	-11.1029
▁کارٹون	-11.1029
▁جڑواں	-11.1029
▁درستگی	-11.1032
▁مظاہرے	-11.1034
▁ٹیکنیکل	-11.1035
▁پیداواری	-11.1036
▁مونرو	-11.1044
▁پھیلانے	-11.1047
▁ورتھ	-11.1049
▁بھرا	-11.1051
▁ریڈار	-11.1051
▁مظاہروں	-11.1056
▁مہر	-11.1063
▁کامیڈی	-11.1069
ff	-11.1075
▁جیتا۔	-11.1079
ko	-11.1085
▁علامتی	-11.1093
ja	-11.1096
▁بھیجی	-11.1096
▁لایا۔	-11.1097
▁جلدوں	-11.11
▁سرحدیں	-11.1126
▁حریفوں	-11.113
-5	-11.113
▁کلین	-11.1157
جدید	-11.1171
▁مضافات	-11.1173
▁کریٹ	-11.1174
▁کمیونسٹوں	-11.118
سلر	-11.1183
▁عبد	-11.1195
!	-11.1198
▁تنہائی	-11.1198
▁عملدرآمد	-11.1198
▁محیط	-11.1198
▁پیتھوجین	-11.1198
▁چہرے	-11.1198
▁خروش	-11.1198
▁جمالیات	-11.1198
▁ملبوس	-11.1198
▁حلقوں	-11.1198
▁مرمت	-11.1198
▁اسٹیورٹ	-11.1198
▁معافی	-11.1199
▁اینٹوں	-11.1199
▁الیکٹر	-11.12
▁شماریاتی	-11.1202
انٹو	-11.1204
▁ریڈیکل	-11.1205
▁جلانے	-11.1205
▁سرگرمیاں	-11.1207
▁فریقین	-11.1208
▁پاتھ	-11.121
go	-11.1212
▁ڈسکو	-11.1222
▁ووٹرز	-11.1225
▁ٹینس	-11.1227
▁پارش	-11.1237
▁اکاؤنٹس	-11.1242
▁مشنریوں	-11.1252
▁ایپس	-11.1253
▁شپنگ	-11.1257
▁سیکٹر	-11.1262
▁رہن	-11.1263
▁خوشی	-11.1276
▁قبرصی	-11.1279
▁فلائی	-11.1281
▁گوڈ	-11.1294
▁ہیلن	-11.1296
▁شک	-11.1299
▁ملی۔	-11.1306
▁جینیات	-11.1345
▁کمیونیکیشن	-11.135
▁ملازمتوں	-11.1352
▁سواری	-11.1359
▁سیلون	-11.136
▁البانیہ	-11.137
▁اوہائیو	-11.137
▁بلغاریہ	-11.137
▁تمغہ	-11.137
▁دائمی	-11.137
▁آپٹیکل	-11.137
▁اسکالرشپ	-11.1371
▁نیلسن	-11.1371
▁پیکیج	-11.1372
▁انتونیو	-11.1372
▁سیلولر	-11.1373
▁پرنسپل	-11.1373
▁1935	-11.1375
▁1836	-11.1382
▁1839	-11.1382
▁1875	-11.1384
▁پابندیاں	-11.1384
▁ہماری	-11.1387
▁قیدی	-11.139
▁روزہ	-11.1396
▁سیریل	-11.14
▁رش	-11.1419
▁(12	-11.1427
▁ہیرا	-11.1435
▁تحفظات	-11.1436
▁اداکاروں	-11.1445
▁عراقی	-11.1483
▁ویٹو	-11.1486
▁ترجیحی	-11.1495
مانی	-11.15
فیکٹ	-11.15
ium	-11.1504
▁صد	-11.151
▁سیونگ	-11.1516
▁عثمان	-11.1518
▁سوگ	-11.1523
▁فکر	-11.1527
ris	-11.1534
▁لیوس	-11.1539
▁کروم	-11.1545
وئٹ	-11.1545
▁افقی	-11.1546
▁الخط	-11.1546
▁امتزاج	-11.1546
▁تقلید	-11.1546
▁فرائض	-11.1546
▁فرنیچر	-11.1546
▁فریکوئنسی	-11.1546
▁مراقبہ	-11.1546
▁مہاکاوی	-11.1546
▁ناظرین	-11.1546
▁ہضم	-11.1546
▁یونیفارم	-11.1546
▁1901	-11.1546
▁البلد	-11.1546
▁نفرت	-11.1546
▁گالیشیا	-11.1546
▁سفیر	-11.1546
▁بھگ	-11.1546
▁بیداری	-11.1546
▁کیوبسٹ	-11.1546
▁راجر	-11.1546
▁کلینیکل	-11.1547
▁پرورش	-11.1547
▁جھلی	-11.1547
▁1923	-11.155
▁ٹرومن	-11.1551
▁متغیرات	-11.1552
▁باغات	-11.1553
▁بھرپور	-11.1554
▁رویہ	-11.1555
▁لگاتے	-11.1556
▁130	-11.1557
▁ہمیں	-11.1558
تان	-11.1561
▁فنکشنل	-11.1565
▁ہیکٹر	-11.1567
▁خور	-11.157
▁امیج	-11.1584
ud	-11.1586
▁یارڈ	-11.1608
▁مزاحم	-11.1626
روگ	-11.1639
امین	-11.1645
▁تکنیکوں	-11.1686
▁پیشرو	-11.1699
▁ڈاکٹروں	-11.17
ov	-11.1721
▁آذربائیجان	-11.1724
▁افسانے	-11.1724
▁الگورتھم	-11.1724
▁جعلی	-11.1724
▁جیواشم	-11.1724
▁فتوحات	-11.1724
▁نعرہ	-11.1724
▁ڈسپلے	-11.1724
▁کچل	-11.1724
▁اسپیشل	-11.1724
▁کوئلے	-11.1725
▁گورننگ	-11.1725
▁کنٹینر	-11.1725
▁وائرلیس	-11.1725
▁مسمار	-11.1726
▁محرکات	-11.1732
▁فوجیں	-11.1736
▁اسٹڈیز	-11.1736
▁1837	-11.1736
▁لیکچرز	-11.1739
▁روزگاری	-11.1741
▁قبولیت	-11.1744
▁رسول	-11.1746
▁نبی	-11.1746
▁ویلتھ	-11.1749
▁کھوج	-11.1753
▁اسٹارٹ	-11.1768
▁To	-11.1777
▁ڈالا۔	-11.178
▁موٹی	-11.1791
ریٹی	-11.1791
▁56	-11.1793
▁پلانٹس	-11.1809
▁مالیت	-11.1828
▁آوازیں	-11.183
▁شار	-11.1849
▁یونٹس	-11.1858
الیا	-11.1868
،9	-11.189
300	-11.1895
▁فاؤنڈ	-11.1904
▁انٹرپرائز	-11.1906
▁ایکسچینج	-11.1906
▁جارحیت	-11.1906
▁طباعت	-11.1906
▁عطیات	-11.1906
▁مجسٹریٹ	-11.1906
▁ٹرانسکرپشن	-11.1906
▁پروموشن	-11.1906
▁ہماچل	-11.1906
▁ہمسایہ	-11.1906
ε	-11.1906
▁ناکافی	-11.1906
▁پکچرز	-11.1906
▁پتیوں	-11.1906
▁کلنٹن	-11.1906
▁مبہم	-11.1906
▁کراؤن	-11.1906
▁انرجی	-11.1906
▁جھوٹ	-11.1907
▁گراہم	-11.1907
▁کپتان	-11.1908
▁کرنل	-11.1908
▁1903	-11.1909
▁1916	-11.1911
▁سینسر	-11.1915
▁سبزیوں	-11.1917
▁ٹرنر	-11.1922
▁مارجن	-11.1923
▁چلاتی	-11.1923
▁ریلیف	-11.1925
ria	-11.1934
▁بروز	-11.1938
▁سویٹ	-11.1947
▁تھور	-11.1948
▁ٹاک	-11.1949
▁گاہیں	-11.1949
▁رنر	-11.1957
▁ہیگل	-11.1962
▁سرکٹس	-11.1963
▁جل	-11.1976
▁رال	-11.1984
▁تصوراتی	-11.1991
▁جڑوں	-11.1998
▁Li	-11.2021
▁خانقاہوں	-11.2024
▁مرسی	-11.2027
▁لنڈ	-11.2027
ایف	-11.2031
ریئر	-11.2034
▁کلید	-11.2049
ریکس	-11.2056
▁پنکھ	-11.2064
▁ہڈ	-11.2068
▁جواز	-11.207
▁انکارپوریٹڈ	-11.2091
▁اچانک	-11.2091
▁بیسیلیکا	-11.2091
▁تھراپی	-11.2091
▁دانشورانہ	-11.2091
▁ضابطے	-11.2091
▁عرصہ	-11.2091
▁قزاقوں	-11.2091
▁معائنہ	-11.2091
▁مفروضہ	-11.2091
▁کفالت	-11.2091
▁کولمبس	-11.2091
▁طبقہ	-11.2091
▁گنبد	-11.2091
▁رونالڈ	-11.2091
▁احیا	-11.2091
▁بینجمن	-11.2091
▁چھلانگ	-11.2091
▁خطرات	-11.2091
▁لیجنڈ	-11.2091
▁دوہری	-11.2092
▁مکانی	-11.2092
▁ڈینیوب	-11.2092
▁ٹلسا	-11.2092
▁چکے	-11.2092
▁غار	-11.2093
▁کیپٹل	-11.2093
▁نجات	-11.2093
▁1904	-11.2095
▁لڑاکا	-11.2096
▁فنانس	-11.2096
▁پتے	-11.2101
▁ٹوٹنے	-11.2102
▁موشن	-11.2102
▁سمجھے	-11.2107
▁میسنز	-11.2133
▁لائسنسنگ	-11.2133
▁سانتا	-11.214
▁چلی	-11.2143
▁کھیلتا	-11.2165
▁ڈول	-11.2174
▁پوسٹل	-11.2178
▁سستی	-11.2188
▁صفر	-11.2198
▁ڈریک	-11.2219
▁گروو	-11.2239
gen	-11.224
▁تفصیل	-11.225
▁Ka	-11.2251
▁لگی	-11.2258
▁پیپر	-11.2268
▁موزائیک	-11.228
کانٹینینٹل	-11.228
▁استثنیٰ	-11.228
▁اناطولیہ	-11.228
▁بدامنی	-11.228
▁ترجمے	-11.228
▁ذرات	-11.228
▁سلووین	-11.228
▁قزاقی	-11.228
▁چائنا	-11.228
▁ہیلینسٹک	-11.228
▁ناروے	-11.228
▁کمپوزر	-11.228
▁1872	-11.228
▁نامکمل	-11.228
▁وقار	-11.228
▁جنیوا	-11.228
▁لپیٹ	-11.2281
▁انڈیز	-11.2281
▁ڈیجیمون	-11.2281
▁بلیوارڈ	-11.2283
▁ڈربی	-11.2284
▁اسپرنگ	-11.2284
▁برنارڈ	-11.2285
▁0.	-11.2285
▁ہیمبرگ	-11.2286
▁1882	-11.2291
▁فلٹر	-11.2304
▁اہلکاروں	-11.2305
▁آنکھوں	-11.2309
▁سربراہان	-11.2311
▁ناگ	-11.2314
▁نکات	-11.2317
▁برتنوں	-11.2335
▁کک	-11.2347
بیو	-11.2347
موجودہ	-11.2361
▁کامنز	-11.2374
▁ساکھ	-11.2378
▁بیٹل	-11.2386
،500	-11.2396
▁ڈیمو	-11.2403
US	-11.2437
-8	-11.2442
▁ہوگئیں	-11.246
▁لینس	-11.2463
▁گہرا	-11.247
▁لکیر	-11.247
▁صوفی	-11.2472
▁اسٹیبلشمنٹ	-11.2472
▁ایمرجنسی	-11.2472
▁تھوڑی	-11.2472
▁خوشگوار	-11.2472
▁ذائقہ	-11.2472
▁صفحات	-11.2472
▁مطلع	-11.2472
▁مفروضے	-11.2472
▁نوزائیدہ	-11.2472
▁پبلشنگ	-11.2472
▁پختہ	-11.2472
▁پرکشش	-11.2472
▁ڈھول	-11.2472
▁کوالیفائی	-11.2472
ü	-11.2472
▁آئسوٹوپ	-11.2472
▁تیرہویں	-11.2472
▁خزانہ	-11.2472
▁اسپانسر	-11.2472
▁ہجے	-11.2472
▁1847	-11.2472
▁کمیونزم	-11.2472
▁انتھونی	-11.2472
▁سڈنی	-11.2472
▁نااہل	-11.2472
▁رجمنٹ	-11.2472
▁کمپریس	-11.2472
▁پارٹنر	-11.2473
▁مکھی	-11.2473
▁پردیش	-11.2473
▁رائفل	-11.2473
▁ڈائمنڈ	-11.2473
▁آپریٹر	-11.2474
▁جادوگر	-11.2474
▁نوکری	-11.2475
▁تھرڈ	-11.2476
▁شبہات	-11.2476
▁منع	-11.2476
▁لاء	-11.2478
▁بوائے	-11.248
▁امیاد	-11.248
▁گوگل	-11.248
▁بھاگنے	-11.2482
میٹک	-11.2482
▁شیلیوں	-11.2483
▁کٹائی	-11.2483
▁بندوقیں	-11.2488
▁جاسوسی	-11.2488
▁1842	-11.2489
▁پگ	-11.2493
▁آسکر	-11.2495
▁شے	-11.2499
▁ایڈمز	-11.25
▁فکری	-11.25
▁اکائیوں	-11.2501
▁1820	-11.2503
▁حرف	-11.2509
▁بچہ	-11.2523
▁ہوئیں۔	-11.2524
▁عبوری	-11.2548
Z	-11.2567
▁ہنس	-11.2581
▁گلڈ	-11.2584
▁ٹریس	-11.2647
▁ڈویلپر	-11.2648
▁ایلیٹ	-11.2651
▁مشترک	-11.266
▁تغیر	-11.2662
▁استقبال	-11.2667
▁افسانوں	-11.2668
▁حادثات	-11.2668
▁سنگاپور	-11.2668
▁لنکاشائر	-11.2668
▁مہنگے	-11.2668
▁کریٹاسیئس	-11.2668
▁کھدائی	-11.2668
▁ہوجائیں	-11.2668
▁سجایا	-11.2668
▁1815	-11.2668
▁ٹریاسک	-11.2668
▁مراکش	-11.2668
▁دراصل	-11.2668
▁سیرامک	-11.2668
▁اسٹینڈرڈ	-11.2669
▁شارلٹ	-11.2669
▁مخطوطات	-11.2669
▁وڈیو	-11.267
ated	-11.2673
▁دبایا	-11.2673
▁ریفارمڈ	-11.2675
▁صفات	-11.268
▁جادو	-11.2684
▁تھرو	-11.2689
▁کمیونیکیشنز	-11.2692
▁فیچر	-11.2695
▁1400	-11.2697
▁سونپ	-11.2725
▁گیمنگ	-11.2739
▁آرکیڈ	-11.274
▁ایجنٹوں	-11.2742
▁گرہ	-11.2749
▁عدالتیں	-11.2749
8،000	-11.2752
AS	-11.2755
▁ریجنٹ	-11.2756
CO	-11.277
▁لینن	-11.2772
▁Ar	-11.279
پالی	-11.2842
▁آنا	-11.2843
▁ہنر	-11.2843
▁بھوک	-11.2844
▁مخلوق	-11.2864
▁XII	-11.2868
▁آدھی	-11.2868
▁ایڈمنسٹریشن	-11.2868
▁بدسلوکی	-11.2868
▁برادرز	-11.2868
▁زرخیز	-11.2868
▁سامراجی	-11.2868
▁قفقاز	-11.2868
▁مستثنیٰ	-11.2868
▁پندرہ	-11.2868
æ	-11.2868
▁خودکشی	-11.2868
▁پیشکش	-11.2869
▁پیڈمونٹ	-11.2869
▁کلوگرام	-11.287
▁کوئنز	-11.287
▁گورڈن	-11.2871
▁دلائل	-11.2872
▁ٹرانسفر	-11.2872
▁آگسٹین	-11.2872
▁سوترا	-11.2872
▁ڈریگن	-11.2872
▁بخارات	-11.2873
▁مخلوقات	-11.2873
▁ولسن	-11.2874
▁دکھاتے	-11.2874
▁اردن	-11.2875
▁مسخ	-11.2875
▁ہالینڈ	-11.2876
▁رومانس	-11.2878
▁پروٹسٹنٹزم	-11.288
▁انکوڈر	-11.2896
▁پہنچانے	-11.2903
▁سنائی	-11.2905
▁موج	-11.2907
▁تکرار	-11.2909
▁پلیئرز	-11.2926
▁ماؤس	-11.2929
▁ایگل	-11.2935
▁مائنر	-11.2941
▁وبا	-11.2953
ٹونک	-11.2974
▁پیٹرو	-11.2986
▁Bo	-11.2996
بورن	-11.2999
AT	-11.3005
▁بخار	-11.3068
▁آٹوموبائل	-11.3072
▁الاباما	-11.3072
▁انکوائری	-11.3072
▁خلیفہ	-11.3072
▁رقبے	-11.3072
▁طحالب	-11.3072
▁لیوپولڈ	-11.3072
▁گفتگو	-11.3072
▁ڈیفالٹ	-11.3072
▁بیپٹسٹ	-11.3072
▁دوپہر	-11.3072
▁رومانیہ	-11.3072
▁مرجان	-11.3072
▁وٹامن	-11.3072
▁سرکلر	-11.3073
▁بولتا	-11.3074
▁گھنے	-11.3074
▁ولیج	-11.3074
▁ٹاسک	-11.3076
▁ہستی	-11.3076
▁برکلے	-11.3077
▁گلے	-11.308
▁ایبٹ	-11.308
▁جیفری	-11.308
▁اتنے	-11.3086
▁25،000	-11.3086
▁اتھانیسس	-11.3089
▁ڈیبیو	-11.3089
لوگ	-11.3097
▁شوگر	-11.3103
▁ڈیوائسز	-11.3119
▁سیاستدانوں	-11.3119
▁مجرموں	-11.312
▁میٹرکس	-11.3122
▁سائیکلنگ	-11.3123
▁گولف	-11.3125
▁قبرصیوں	-11.3127
▁4.	-11.3133
▁بھرنے	-11.3147
▁92	-11.3164
▁اربن	-11.3185
▁پاول	-11.3196
▁ڈپول	-11.3216
ther	-11.3233
▁فلک	-11.3238
اگرچہ	-11.3241
جرمن	-11.3255
▁ذات	-11.3257
▁القاعدہ	-11.3281
▁انزائم	-11.3281
▁تجزیاتی	-11.3281
▁ثقل	-11.3281
▁حادثے	-11.3281
▁دواسازی	-11.3281
▁سعودی	-11.3281
▁فکسچر	-11.3281
▁مطالبات	-11.3281
▁نوادرات	-11.3281
▁نوشتہ	-11.3281
▁کیٹالونیا	-11.3281
▁یوٹریچٹ	-11.3281
▁خاکہ	-11.3281
▁1905	-11.3281
▁1915	-11.3281
▁خواب	-11.3281
▁کارٹریج	-11.3281
▁ڈیویڈ	-11.3281
▁لڑکے	-11.3282
▁مزار	-11.3282
▁شفٹ	-11.3283
▁شکوک	-11.3283
▁وکیل	-11.3283
▁تالیف	-11.3283
▁کیمرون	-11.3284
▁سنڈے	-11.3284
▁عزم	-11.3285
▁اسٹیمپ	-11.3285
▁نواز	-11.3285
▁رجسٹریشن	-11.3286
▁واٹسن	-11.3286
▁ضمیر	-11.3286
▁براڈکاسٹنگ	-11.3287
▁گوانگ	-11.3288
▁کھائی	-11.3292
▁بچاؤ	-11.3292
▁ہلکا	-11.3295
▁1878	-11.3301
ٹیبل	-11.3308
▁تانگ	-11.3314
▁پھیلنے	-11.3317
▁بارود	-11.3319
▁ٹوپی	-11.3321
▁1200	-11.3332
▁ٹیمپل	-11.3335
ide	-11.3379
گرین	-11.3391
▁1600	-11.3393
▁ڈریم	-11.3395
ونیس	-11.3411
▁Le	-11.3423
▁بروس	-11.3438
▁1700	-11.3455
▁انگلی	-11.3468
بنیادی	-11.3474
▁مماثل	-11.3486
▁شم	-11.3488
▁اکیسویں	-11.3494
▁تخمینے	-11.3494
▁تلوار	-11.3494
▁ذیابیطس	-11.3494
▁رابطوں	-11.3494
▁سپانسر	-11.3494
▁شعلہ	-11.3494
▁مدرسے	-11.3494
▁مذکورہ	-11.3494
▁مہنگا	-11.3494
▁پھیپھڑوں	-11.3494
▁کرسٹوفر	-11.3494
▁ہنگامہ	-11.3494
ó	-11.3494
▁یونیسکو	-11.3494
▁آرنلڈ	-11.3494
▁ہوچکا	-11.3494
▁سیمینار	-11.3494
▁مبارک	-11.3494
▁ویدک	-11.3494
▁ریشم	-11.3494
▁مترجم	-11.3494
▁منچوریا	-11.3495
▁جوبلی	-11.3495
▁لٹکا	-11.3495
▁ووٹروں	-11.35
▁نسبیت	-11.3501
▁کریول	-11.3502
▁انتون	-11.3503
▁15،000	-11.3511
▁1833	-11.3512
▁1825	-11.3514
▁منزلہ	-11.3516
ایچ	-11.3527
▁کلون	-11.3529
▁بدنامی	-11.3539
▁دیکھنا	-11.354
▁ملایا	-11.3542
▁جدیدیت	-11.356
▁برطرفی	-11.3561
▁کریگ	-11.3565
qui	-11.3573
▁پراگ	-11.3628
ھم	-11.3647
rn	-11.3656
▁گلوب	-11.3677
ju	-11.368
▁مبصر	-11.3706
▁128	-11.3708
▁Twilight	-11.3711
▁ابراہیم	-11.3711
▁افراط	-11.3711
▁سازوسامان	-11.3711
▁مدرسہ	-11.3711
▁وکٹورین	-11.3711
▁چوڑائی	-11.3711
▁چیواہوا	-11.3711
▁کارخانہ	-11.3711
▁فلائنگ	-11.3711
▁مہنگی	-11.3711
▁گزرگاہ	-11.3711
▁خیمہ	-11.3711
▁ریچرڈ	-11.3711
▁ڈینیئل	-11.3711
▁سراہا	-11.3711
▁ترسیل	-11.3711
▁کاشتکاری	-11.3712
▁سنٹر	-11.3712
▁مائکروفون	-11.3712
▁استاد	-11.3712
▁ربی	-11.3712
▁ڈونلڈ	-11.3713
▁باندھ	-11.3713
▁فشاں	-11.3713
▁کشمیر	-11.3713
▁مینڈیٹ	-11.3715
▁اورلینز	-11.3715
▁امینو	-11.3716
▁ہومر	-11.3717
▁پچاس	-11.3717
▁500،000	-11.3722
▁کھایا	-11.3725
▁ثالثی	-11.3727
▁ناتھ	-11.3727
جیانگ	-11.373
▁ڈویلپرز	-11.3734
▁2500	-11.3734
▁تاثرات	-11.3739
اصل	-11.374
▁راجرز	-11.3742
بہت	-11.3744
▁کاغذات	-11.3745
▁بابل	-11.3753
▁زبردستی	-11.3761
▁700	-11.378
und	-11.3859
1،000	-11.3881
▁ٹیکسٹ	-11.3892
▁مریض	-11.3896
▁ارضیات	-11.3908
▁مشیل	-11.3916
▁ٹرک	-11.3917
▁پگھل	-11.3929
à	-11.3933
▁اندھیرے	-11.3933
▁بیلجئیم	-11.3933
▁شعاع	-11.3933
▁فرڈینینڈ	-11.3933
▁مجموعوں	-11.3933
▁مونٹیویڈیو	-11.3933
▁پچھلی	-11.3933
▁کاتالونیا	-11.3933
▁زاویہ	-11.3933
▁میتھیو	-11.3933
▁ہائبرڈ	-11.3933
▁سرورق	-11.3933
▁بٹالین	-11.3933
▁تھنڈر	-11.3933
▁شیطان	-11.3933
▁سرجری	-11.3933
▁جوائنٹ	-11.3933
▁پیتل	-11.3934
▁خبردار	-11.3935
▁ٹوکری	-11.3935
▁کروشین	-11.3935
▁پیٹریاٹ	-11.3936
▁ڈاکٹریٹ	-11.3937
▁شکنی	-11.3938
▁رخ	-11.3949
▁فاتحین	-11.3955
▁مرغیوں	-11.3959
▁سیلٹک	-11.397
▁ویلیم	-11.3976
/؛	-11.3976
▁کمرہ	-11.4003
▁گیلن	-11.4056
▁ٹائل	-11.4061
▁پونٹی	-11.4061
▁لیمب	-11.4065
▁اشتہار	-11.407
▁ریپر	-11.4076
ST	-11.4077
▁پیکٹ	-11.4097
▁مظاہر	-11.4103
▁فلسطینی	-11.4122
9،000	-11.4144
▁ٹیکنیک	-11.4151
▁شبہ	-11.4158
امہ	-11.416
▁استعفے	-11.416
▁اسماعیل	-11.416
▁دستکاری	-11.416
▁رضاکاروں	-11.416
▁سیرکیڈین	-11.416
▁عددی	-11.416
▁قصبہ	-11.416
▁لہجے	-11.416
▁معاشرہ	-11.416
▁منتظمین	-11.416
▁نقشے	-11.416
▁ورثے	-11.416
▁کنندگان	-11.416
▁گورنمنٹ	-11.416
▁ہبسبرگ	-11.416
▁اجرت	-11.416
▁قسط	-11.416
▁متناسب	-11.416
▁محنت	-11.416
▁مرحوم	-11.416
▁جتنا	-11.416
▁گالیشین	-11.416
▁فلاح	-11.416
▁بہادر	-11.416
▁ملحد	-11.416
▁نیچرل	-11.416
صفحہ	-11.416
▁یوٹاہ	-11.4161
▁پرائیویٹ	-11.4161
▁ٹنگسٹن	-11.4161
▁بالکان	-11.4161
▁افیون	-11.4161
▁رحم	-11.4161
▁آریائی	-11.4161
▁صوفیانہ	-11.4161
▁منانے	-11.4162
▁دادی	-11.4162
▁بلوط	-11.4162
▁بوسنیا	-11.4164
▁ریوڑ	-11.4164
▁چلتے	-11.4166
▁آنکھیں	-11.4168
▁مورگن	-11.4169
qu	-11.4171
▁ہارپر	-11.4172
▁ابھرتی	-11.4172
▁1776	-11.4174
▁بازاری	-11.4174
▁کندہ	-11.4176
▁جنکشن	-11.4178
▁گزارے	-11.4179
▁1838	-11.418
2010	-11.4181
▁پوتے	-11.4186
ven	-11.4193
▁ہاکین	-11.4193
▁شیئرنگ	-11.4195
▁رہنا	-11.4203
▁سوئی	-11.4204
▁شاپ	-11.4218
▁الما	-11.422
▁میرٹ	-11.4244
▁اشتہاری	-11.4247
▁بودھی	-11.425
▁چاک	-11.4318
▁روبی	-11.4324
▁چٹان	-11.4357
>	-11.4393
π	-11.4393
▁اوبلاست	-11.4393
▁اولمپیا	-11.4393
▁بسمارک	-11.4393
▁شلاچٹا	-11.4393
▁قالین	-11.4393
▁قاہرہ	-11.4393
▁قبیلہ	-11.4393
▁مبذول	-11.4393
▁مجوزہ	-11.4393
▁محتاط	-11.4393
▁مذاق	-11.4393
▁موسیٰ	-11.4393
▁نظارہ	-11.4393
▁کولوراڈو	-11.4393
▁ہولوکاسٹ	-11.4393
▁1906	-11.4393
▁خوفناک	-11.4393
▁گارنیشن	-11.4393
▁جہتی	-11.4393
▁فارچون	-11.4393
▁نمٹا	-11.4393
▁نفیس	-11.4393
▁بینڈوتھ	-11.4393
▁ڈگلس	-11.4393
▁اسپیکٹر	-11.4393
▁مادوں	-11.4393
▁چالیس	-11.4393
▁یریوان	-11.4393
▁آفتاب	-11.4393
▁شافٹ	-11.4393
▁سنتھیس	-11.4393
▁سازگار	-11.4395
▁کسٹمر	-11.4395
▁کہانیاں	-11.4402
▁1835	-11.4405
▁1863	-11.4407
▁السیس	-11.4408
▁1821	-11.4408
▁اسٹریمنگ	-11.4409
▁ریجنل	-11.4412
▁ہک	-11.4442
▁Pe	-11.446
▁ونڈو	-11.447
▁باتھ	-11.4494
▁Ju	-11.4528
ment	-11.4538
je	-11.4543
ger	-11.4554
▁Ta	-11.4554
▁فیکٹر	-11.4577
▁ٹیبلٹ	-11.4591
▁کمپن	-11.4601
▁امتحان	-11.4626
−	-11.4631
▁استحقاق	-11.4631
▁امیونولوجی	-11.4631
▁بصیرت	-11.4631
▁بہبود	-11.4631
▁خرگوش	-11.4631
▁سنجیدہ	-11.4631
▁سپاہی	-11.4631
▁شاگرد	-11.4631
▁شنگھائی	-11.4631
▁شکایات	-11.4631
▁قربت	-11.4631
▁معتدل	-11.4631
▁معذور	-11.4631
▁معقول	-11.4631
▁میکنٹوش	-11.4631
▁چاہتی	-11.4631
▁چوراہے	-11.4631
▁استنبول	-11.4631
▁افواہ	-11.4631
▁مصور	-11.4631
▁وایلیٹ	-11.4631
▁دخل	-11.4631
▁کررہی	-11.4631
▁کمپاس	-11.4632
▁سیفٹی	-11.4632
▁بائیکاٹ	-11.4632
▁پارتھین	-11.4633
▁لوفتوافے	-11.4634
▁فارورڈ	-11.4634
▁چودہ	-11.4635
▁ہانگجو	-11.4636
▁جنریٹر	-11.4637
▁کزن	-11.4637
▁Mo	-11.4642
▁12،000	-11.4644
▁1874	-11.4646
▁نوعمری	-11.4649
▁ماریو	-11.4655
▁1895	-11.4655
▁اکی	-11.4656
▁الفا	-11.4658
▁پہنچتا	-11.4666
▁آبادیاتی	-11.4666
کبھی	-11.4725
▁ایکویٹی	-11.4731
پولیس	-11.4761
▁بائٹ	-11.4801
▁شرم	-11.4807
▁آنکھ	-11.4839
▁اکائی	-11.4842
▁بدعنوان	-11.4843
▁لچک	-11.4874
▁افراتفری	-11.4875
▁انتظار	-11.4875
▁تخمینوں	-11.4875
▁شہزادے	-11.4875
▁لوازمات	-11.4875
▁محکموں	-11.4875
▁منقطع	-11.4875
▁میٹابولک	-11.4875
▁نکولائی	-11.4875
▁وینزویلا	-11.4875
▁چانسلر	-11.4875
▁کیٹلاگ	-11.4875
▁ایڈونچر	-11.4875
▁فکسڈ	-11.4875
▁ڈپریشن	-11.4875
▁1902	-11.4875
▁رشوت	-11.4875
▁زیورات	-11.4875
▁بیچلر	-11.4875
▁1877	-11.4875
▁وِگ	-11.4875
▁چیلسی	-11.4875
▁الدین	-11.4875
▁کمیونین	-11.4875
▁انسولین	-11.4875
▁ٹوالو	-11.4875
▁چھڑی	-11.4875
▁کردے	-11.4875
▁شرط	-11.4876
▁زہریلا	-11.4876
▁پھوٹ	-11.4876
▁PAL	-11.4876
▁پریکٹس	-11.4876
▁گوریلا	-11.4877
▁ریفارمیشن	-11.4877
▁تیمور	-11.4877
▁فولڈ	-11.4881
ion	-11.4881
9.	-11.4882
▁معدومیت	-11.4882
▁گرلز	-11.4887
▁اللہ	-11.489
▁1896	-11.489
▁1889	-11.4892
▁1846	-11.4892
▁خودکار	-11.4898
▁مشکلات	-11.4904
▁برش	-11.491
▁Da	-11.4931
▁گود	-11.4931
نگھم	-11.4939
▁چالو	-11.4965
▁قربان	-11.4981
▁فرن	-11.4988
اکثر	-11.4995
▁زخم	-11.5041
▁شاک	-11.5094
▁فائن	-11.5118
▁جمناسٹ	-11.5122
ō	-11.5125
▁الجزائر	-11.5125
▁اپالاچین	-11.5125
▁برہمن	-11.5125
▁تاثیر	-11.5125
▁تعمیل	-11.5125
▁تلافی	-11.5125
▁جغرافیہ	-11.5125
▁حقائق	-11.5125
▁لوزیانا	-11.5125
▁مشغول	-11.5125
▁منتشر	-11.5125
▁مونٹریال	-11.5125
▁وائکنگ	-11.5125
▁ولادیمیر	-11.5125
▁کمپوزیشن	-11.5125
▁گاندھی	-11.5125
▁مصلوب	-11.5125
▁موزارٹ	-11.5125
▁میٹھے	-11.5125
▁پلاٹینم	-11.5125
▁ڈیسریلی	-11.5125
▁ہوچکے	-11.5125
ö	-11.5125
▁سیڑھی	-11.5125
▁لٹویا	-11.5125
▁ڈرامے	-11.5125
▁انجکشن	-11.5125
▁ایڈوانس	-11.5125
▁ٹرانسفارمر	-11.5125
▁بتاتا	-11.5125
▁ترامیم	-11.5125
▁ملتوی	-11.5125
▁ایڈولف	-11.5125
▁تھیوڈور	-11.5125
▁ورجیل	-11.5125
▁ٹیریٹری	-11.5125
▁ویگاس	-11.5125
▁اسمارٹ	-11.5125
▁جنگجوؤں	-11.5127
▁کیتھرین	-11.5127
▁ٹرپل	-11.5127
▁ننگے	-11.5127
▁ماہانہ	-11.513
▁capacitors	-11.513
▁لگائے	-11.5131
▁ہائپو	-11.5131
▁انڈوں	-11.5132
▁بوٹیوں	-11.5133
▁جوڑتے	-11.5133
▁چکن	-11.5134
▁نکلنے	-11.5137
▁توہین	-11.5139
▁1866	-11.514
▁1851	-11.5142
▁چیخ	-11.5142
▁1873	-11.5146
▁پرستار	-11.5149
▁بائیک	-11.515
▁ڈراپ	-11.5152
▁سولڈر	-11.5152
▁ناسا	-11.5158
▁وینیل	-11.5266
▁اتھانیس	-11.5361
▁لیکچر	-11.5365
▁انتہا	-11.538
ά	-11.5381
▁half	-11.5381
▁incandescent	-11.5381
▁باویریا	-11.5381
▁بوڑھے	-11.5381
▁تبادلوں	-11.5381
▁تفریق	-11.5381
▁جیومیٹری	-11.5381
▁حاکم	-11.5381
▁دروازہ	-11.5381
▁ستارہ	-11.5381
▁شہزادوں	-11.5381
▁مترادف	-11.5381
▁مسدود	-11.5381
▁نائٹروجن	-11.5381
▁نمائندگان	-11.5381
▁ورچوئل	-11.5381
▁چراغ	-11.5381
▁چہرہ	-11.5381
▁کاربوہائیڈریٹ	-11.5381
▁ایڈنبرا	-11.5381
ɔ	-11.5381
▁لنکاسٹر	-11.5381
▁مجید	-11.5381
▁نثر	-11.5381
▁املاک	-11.5381
▁انگلش	-11.5381
▁نازک	-11.5382
▁جوراسک	-11.5382
▁پومپی	-11.5383
▁بلانک	-11.5383
▁چچا	-11.5384
▁مخطوطہ	-11.5384
▁کیمرے	-11.5384
▁مسوری	-11.5386
▁منائی	-11.5388
▁فاسٹ	-11.5388
▁گھڑیاں	-11.5388
▁ڈونڈا	-11.5388
▁مردانہ	-11.5388
▁سمجھتی	-11.539
▁اسٹینڈ	-11.5392
▁کیفے	-11.5392
▁رولینڈ	-11.5393
▁حاملہ	-11.5396
▁چلاتے	-11.54
▁رویوں	-11.5403
▁کھولے	-11.5413
▁شاٹ	-11.5457
AL	-11.5495
▁فرانکو	-11.5524
▁براڈکاسٹر	-11.5537
▁ڈب	-11.5558
فرانسیسی	-11.5558
▁ٹریپ	-11.5589
▁انکوڈ	-11.56
ən	-11.5637
&	-11.5645
▁اراگون	-11.5645
▁انحراف	-11.5645
▁تبلیغ	-11.5645
▁جھڑپ	-11.5645
▁ریگولیشن	-11.5645
▁زہریلے	-11.5645
▁ستاروں	-11.5645
▁سنجیدگی	-11.5645
▁صحافت	-11.5645
▁عطا	-11.5645
▁غدود	-11.5645
▁مستند	-11.5645
▁نیولیتھک	-11.5645
▁وینچوان	-11.5645
▁پٹرولیم	-11.5645
▁ڈائیوسیس	-11.5645
▁ٹوائلٹ	-11.5645
▁بدوش	-11.5645
▁ٹربیون	-11.5645
▁گالیسیا	-11.5645
▁1892	-11.5645
▁سلنڈر	-11.5645
▁تیونس	-11.5645
▁تردید	-11.5645
▁بھیڑیا	-11.5645
▁تہوں	-11.5645
▁فلمایا	-11.5645
▁گلبرٹ	-11.5645
▁سمرسیٹ	-11.5645
▁سلاٹ	-11.5647
▁مشروبات	-11.5647
▁ڈیزل	-11.5647
▁نیورونز	-11.5648
▁لتھوانیائی	-11.5648
▁سوشلزم	-11.565
▁پیپسی	-11.565
▁شفاف	-11.565
▁نارمنڈی	-11.5651
▁ریچھ	-11.5653
▁کھینچنے	-11.5655
▁کورٹیکس	-11.5656
▁فوسٹر	-11.5656
▁1894	-11.5658
▁ارون	-11.566
▁ڈگریاں	-11.5661
▁پام	-11.5663
▁1858	-11.5664
▁ٹرمپ	-11.5671
▁ماریہ	-11.5689
▁کینال	-11.5783
جنوبی	-11.5853
▁اجتماع	-11.589
▁روزگار	-11.5891
وگرافی	-11.5903
تفسیر	-11.5915
▁آبزرویٹری	-11.5915
▁افسانہ	-11.5915
▁اٹھارہویں	-11.5915
▁زیادتی	-11.5915
▁صحیفوں	-11.5915
▁فونافوٹی	-11.5915
▁فینوٹائپ	-11.5915
▁لاپتہ	-11.5915
▁لمحے	-11.5915
▁مجموعے	-11.5915
▁معاوضے	-11.5915
▁میسوپوٹیمیا	-11.5915
▁پختگی	-11.5915
▁چیکوسلوواکیہ	-11.5915
▁کاربونیٹ	-11.5915
▁کنڈیشنر	-11.5915
▁خالق	-11.5915
▁آبادکاروں	-11.5915
▁کنکریٹ	-11.5915
▁بھیڑیوں	-11.5915
▁سادگی	-11.5915
▁سلائیڈ	-11.5915
▁سیگمنٹ	-11.5915
▁رینگنے	-11.5915
▁پویلین	-11.5915
▁اوورلیپ	-11.5915
▁یانگزی	-11.5915
▁منڈیوں	-11.5915
▁تورات	-11.5915
لوقا	-11.5915
▁پاشا	-11.5916
▁Kill	-11.5917
▁آدھا	-11.5918
▁نیکول	-11.5922
▁وارانہ	-11.5923
▁گریگوریائی	-11.5923
▁1926	-11.5924
▁تائید	-11.5924
▁ڈوبنے	-11.5925
▁اٹھاتے	-11.5925
▁فارغ	-11.5926
▁پیغامات	-11.5927
▁چیئر	-11.5927
▁گزرتی	-11.5927
▁پرنسٹن	-11.5928
▁وولف	-11.593
▁چڑھنے	-11.593
▁فلوٹ	-11.5931
▁1824	-11.5931
▁ریگن	-11.5943
▁235	-11.5944
▁گریگ	-11.5947
Zn	-11.5956
▁پہل	-11.6074
▁سلم	-11.613
▁اہلکار	-11.6158
▁کیپسیٹر	-11.6172
▁ریفارم	-11.6188
▁رفت	-11.619
=	-11.6193
ɑ	-11.6193
▁Mockingbird	-11.6193
▁آمریت	-11.6193
▁بینیڈکٹ	-11.6193
▁تخریب	-11.6193
▁ساوتھمپٹن	-11.6193
▁سرٹیفکیٹ	-11.6193
▁سمجھوتہ	-11.6193
▁سیموئیل	-11.6193
▁عجیب	-11.6193
▁عمومی	-11.6193
▁قطار	-11.6193
▁مشاہدات	-11.6193
▁میٹابولزم	-11.6193
▁گھلنشیل	-11.6193
▁ہاؤنڈ	-11.6193
▁ہاضمہ	-11.6193
▁باطل	-11.6193
▁سیلولوز	-11.6193
▁صفحے	-11.6193
▁1856	-11.6193
▁افسوس	-11.6193
▁خسرہ	-11.6193
▁قلیل	-11.6193
▁مینوئل	-11.6193
▁فرشتہ	-11.6193
▁یونگلے	-11.6193
▁ہیملٹن	-11.6193
▁موصل	-11.6193
▁آگسٹس	-11.6193
▁کیوبیک	-11.6193
▁لزبن	-11.6193
▁سٹرلنگ	-11.6193
▁بولتی	-11.6194
▁ناراضگی	-11.6195
▁خوشبو	-11.6196
▁یلسن	-11.6196
▁وٹنی	-11.6198
▁جلوس	-11.6198
▁بساو	-11.6198
▁پولٹری	-11.62
▁اگلا	-11.6201
▁روبن	-11.6203
▁لکھنا	-11.6205
▁چکی	-11.6205
▁مانیٹر	-11.6209
▁حب	-11.6304
کریٹک	-11.6321
222	-11.6364
یونانی	-11.6473
▁اسکواڈ	-11.6477
▁دبا	-11.6477
μ	-11.6478
ṣ	-11.6478
▁برمنگھم	-11.6478
▁ذہانت	-11.6478
▁روابط	-11.6478
▁ضابطہ	-11.6478
▁طاعون	-11.6478
▁مدنظر	-11.6478
▁مرتفع	-11.6478
▁میگوئل	-11.6478
▁نائنٹینڈو	-11.6478
▁وائسرائے	-11.6478
▁پریزنٹیشن	-11.6478
▁چاہئیں	-11.6478
▁کٹھمنڈو	-11.6478
▁یکجہتی	-11.6478
ū	-11.6478
ω	-11.6478
▁بریگھم	-11.6478
▁موومنٹ	-11.6478
▁میگاواٹ	-11.6478
▁پروفیشنل	-11.6478
▁1644	-11.6478
▁ضمیمہ	-11.6478
▁امارات	-11.6478
▁لگاتار	-11.6478
▁الائنس	-11.6478
▁جینیفر	-11.6478
▁سرمئی	-11.6478
▁پروفائل	-11.6478
▁کبوتر	-11.6478
▁ٹوکیو	-11.6478
▁ارنسٹ	-11.6478
▁ضرب	-11.6479
▁آنتوں	-11.6479
▁پیٹرولیم	-11.6479
▁لیمبرٹ	-11.6479
▁گودام	-11.6479
▁استقبالیہ	-11.648
▁شائر	-11.6481
▁درسی	-11.6483
▁پکانے	-11.6483
▁صدور	-11.6484
▁اسرار	-11.6484
▁لیونارڈ	-11.6485
▁سکہ	-11.6489
▁اترنے	-11.649
▁نینو	-11.6504
▁گیلگ	-11.6549
▁سلپ	-11.6599
▁ہنٹ	-11.6713
▁مفاد	-11.6768
q	-11.6769
▁Tuvalu	-11.6772
▁آرکیٹیکٹس	-11.6772
▁بندوبست	-11.6772
▁بیوروکریسی	-11.6772
▁تقدیر	-11.6772
▁جرنیلوں	-11.6772
▁قازقستان	-11.6772
▁مجسموں	-11.6772
▁مستثنیات	-11.6772
▁مشتق	-11.6772
▁معزز	-11.6772
▁معینہ	-11.6772
▁کومکاسٹ	-11.6772
▁کھنڈرات	-11.6772
▁ہڈالگو	-11.6772
▁آئیڈیلزم	-11.6772
▁لیکسنگٹن	-11.6772
▁گپتا	-11.6772
▁قاتل	-11.6772
▁حویلی	-11.6772
▁اناٹومی	-11.6773
▁ہارلم	-11.6773
▁نقد	-11.6773
▁سکریپ	-11.6773
▁رگڑ	-11.6773
▁پھیری	-11.6773
▁زمرہ	-11.6774
▁لوپیز	-11.6774
▁وحی	-11.6775
▁ٹسکن	-11.6776
▁جیانگسو	-11.6777
▁کینبرا	-11.6777
▁ٹکرا	-11.6778
▁فلورنس	-11.6778
▁امتحانات	-11.6778
▁کردیں	-11.6779
Com	-11.6782
▁ہائٹس	-11.6785
پروشین	-11.6789
▁لنگر	-11.6843
بڑے	-11.6941
ماؤتھ	-11.7027
▁پھ	-11.7048
▁جاسوس	-11.705
▁اپوسٹولک	-11.7075
▁برینڈنبرگ	-11.7075
▁بلوغت	-11.7075
▁تحائف	-11.7075
▁خیرمقدم	-11.7075
▁سکریٹری	-11.7075
▁عظمت	-11.7075
▁مداحوں	-11.7075
▁پاؤڈر	-11.7075
▁پراپرٹی	-11.7075
▁پروجیکشن	-11.7075
▁ڈھانپ	-11.7075
▁دہرایا	-11.7075
▁فزیکل	-11.7075
▁نیوکلیئس	-11.7075
▁چھاپہ	-11.7075
▁دھڑوں	-11.7075
▁گشت	-11.7075
▁جنازے	-11.7075
▁سدرن	-11.7075
▁سیکورٹی	-11.7075
▁گندم	-11.7075
▁ناریل	-11.7076
▁USB	-11.7076
▁بوئنگ	-11.7076
▁گڑیا	-11.7076
▁جامنی	-11.7076
▁فرانز	-11.7076
▁ریٹائرمنٹ	-11.7077
▁نکسن	-11.7078
▁ex	-11.7078
▁چمکدار	-11.7078
▁ونسٹن	-11.7078
▁افرو	-11.7079
▁ڈارٹ	-11.708
▁آئرس	-11.7081
▁پینتھر	-11.7081
▁کیڑا	-11.7081
▁میگنس	-11.7081
▁کھوئے	-11.7083
▁حسن	-11.7085
▁ربن	-11.7113
پرتگالی	-11.7123
(	-11.7124
عظیم	-11.7124
▁انگریز	-11.7326
LD	-11.7328
▁اسٹڈی	-11.7369
▁ٹیکنو	-11.7372
▁capacitor	-11.7381
▁شفا	-11.7385
▁Athanasius	-11.7388
▁اغوا	-11.7388
▁الحاق	-11.7388
▁انسداد	-11.7388
▁اونٹاریو	-11.7388
▁ایمانوئل	-11.7388
▁بجانے	-11.7388
▁دہندہ	-11.7388
▁سنسرشپ	-11.7388
▁طلوع	-11.7388
▁عضو	-11.7388
▁عمدہ	-11.7388
▁فلسفوں	-11.7388
▁فلینڈرز	-11.7388
▁لوکوموٹو	-11.7388
▁مائکروجنزم	-11.7388
▁موگادیشو	-11.7388
▁مہاجرین	-11.7388
▁نعرے	-11.7388
▁نوکلاسیکل	-11.7388
▁ٹھہرایا	-11.7388
▁پروپیگنڈا	-11.7388
▁پورٹسماؤتھ	-11.7388
▁پینگوئن	-11.7388
▁کنزرویٹری	-11.7388
è	-11.7388
▁اقتباس	-11.7388
▁اوسبورن	-11.7388
▁برادران	-11.7388
▁فلامنٹ	-11.7388
▁محض	-11.7388
▁چیروکی	-11.7388
▁آبنائے	-11.7388
▁روانگی	-11.7388
▁ہلاکتیں	-11.7388
▁سکاؤٹ	-11.7388
▁فوجیوارا	-11.7388
▁بیڑا	-11.7388
▁کنگڈم	-11.7388
▁چوہوں	-11.7388
▁یورینس	-11.7388
▁اکیلے	-11.7389
▁ایوینیو	-11.7389
▁کمایا	-11.7389
،600	-11.7389
▁کھائے	-11.739
▁ہائیڈرولک	-11.739
▁بکتر	-11.7392
TF	-11.7394
▁جگر	-11.7395
▁اینجل	-11.7399
زیادہ	-11.747
▁ریپبلک	-11.7594
حرفی	-11.765
▁مرغی	-11.7674
▁آزمائش	-11.7711
▁اعدادوشمار	-11.7711
▁تحفہ	-11.7711
▁جوناتھن	-11.7711
▁خروشچوف	-11.7711
▁دانشوروں	-11.7711
▁ستارے	-11.7711
▁غلبے	-11.7711
▁متصادم	-11.7711
▁مطمئن	-11.7711
▁پالمرسٹن	-11.7711
▁پروٹوٹائپ	-11.7711
▁پروٹیکشن	-11.7711
▁چاہیے	-11.7711
▁کھوپڑی	-11.7711
▁گڑھے	-11.7711
▁باورچی	-11.7711
▁خیمے	-11.7711
▁راضی	-11.7711
▁زنجیر	-11.7711
▁ٹائیگرز	-11.7711
▁چھاپے	-11.7711
▁رئیل	-11.7711
▁رینڈرنگ	-11.7711
▁لبرٹی	-11.7711
▁آمیز	-11.7711
▁سیئول	-11.7711
▁سوئز	-11.7711
▁پکاسو	-11.7711
▁کررہا	-11.7711
▁چادر	-11.7711
▁پرندہ	-11.7711
▁ٹیوشن	-11.7711
▁عیش	-11.7712
▁پاؤں	-11.7712
▁پاگل	-11.7712
▁فیلکس	-11.7712
▁ٹرائلز	-11.7713
▁پرائس	-11.7716
▁فلیش	-11.7716
▁ایڈمنڈ	-11.7716
▁یانکی	-11.7716
▁پلینی	-11.7738
▁براڈکاسٹ	-11.7835
▁ٹارٹ	-11.8024
▁معدنی	-11.8039
▁سوازی	-11.8043
ί	-11.8044
▁Cubs	-11.8044
▁آلودہ	-11.8044
▁تمغے	-11.8044
▁تھراواڈا	-11.8044
▁دفعات	-11.8044
▁دمشق	-11.8044
▁راجپوت	-11.8044
▁شریعت	-11.8044
▁فاسفورس	-11.8044
▁فلوروسینٹ	-11.8044
▁مشروط	-11.8044
▁نوولیتھک	-11.8044
▁پیلیولیتھک	-11.8044
▁چالکتا	-11.8044
▁ڈایناسور	-11.8044
▁کینٹربری	-11.8044
▁گھونسلے	-11.8044
▁انتقام	-11.8044
▁تھورنگین	-11.8044
▁سلسلوں	-11.8044
▁سیکریٹری	-11.8044
▁ڈرائنگ	-11.8044
▁1831	-11.8044
▁کمرشل	-11.8044
▁عیب	-11.8044
▁خلل	-11.8044
▁ریشے	-11.8044
▁ملبے	-11.8044
▁ٹیکٹونک	-11.8044
▁کینسنگٹن	-11.8044
▁ہائیڈرائڈ	-11.8044
▁ذرہ	-11.8044
▁پارٹنرشپ	-11.8044
▁ربڑ	-11.8044
▁شرٹس	-11.8045
▁زمانہ	-11.8046
▁شیفیلڈ	-11.8046
▁ارادی	-11.8046
▁میرے	-11.8047
▁لنچ	-11.8047
▁سیاروں	-11.8047
▁کرسکیں	-11.8047
▁اسٹروک	-11.8048
▁بنائیں	-11.8049
▁اسٹریپ	-11.8053
▁فونوگراف	-11.806
سنسکرت	-11.8195
آبادی	-11.8196
برطانوی	-11.8197
امریکہ	-11.8197
▁فرانک	-11.8203
▁نوعمر	-11.8326
▁ثالث	-11.8363
▁محب	-11.8381
í	-11.8389
▁آبپاشی	-11.8389
▁اجراء	-11.8389
▁انڈپینڈنٹ	-11.8389
▁بوہیمیا	-11.8389
▁تلچھٹ	-11.8389
▁درپیش	-11.8389
▁سلواڈور	-11.8389
▁سلوواکیہ	-11.8389
▁ظالمانہ	-11.8389
▁عدلیہ	-11.8389
▁غصے	-11.8389
▁معاویہ	-11.8389
▁مقالہ	-11.8389
▁میراث	-11.8389
▁ناگزیر	-11.8389
▁ٹھنڈے	-11.8389
▁چمڑے	-11.8389
▁گھوڑسواری	-11.8389
γ	-11.8389
▁1492	-11.8389
▁اسکاؤٹ	-11.8389
▁شوقیہ	-11.8389
▁شکریہ	-11.8389
▁لبریشن	-11.8389
▁یوایسبی	-11.8389
δ	-11.8389
▁فرینکفرٹ	-11.8389
▁چامورو	-11.8389
▁راہداری	-11.8389
▁خلیے	-11.8389
▁موٹائی	-11.8389
▁دلدل	-11.8389
▁ملاحوں	-11.8389
▁فزیولوجی	-11.8389
▁موکنگ	-11.8389
▁مٹھی	-11.8389
▁(0.	-11.8389
▁گاہکوں	-11.8389
▁ٹھنڈی	-11.8389
▁پرعزم	-11.839
▁زیجیانگ	-11.839
▁عزت	-11.839
▁چائے	-11.8392
▁الساس	-11.8392
▁اسٹیڈ	-11.8397
▁معا	-11.8411
,500	-11.8455
تمام	-11.8582
▁حراست	-11.8717
▁Jo	-11.8724
η	-11.8746
▁احتیاط	-11.8746
▁ازبکستان	-11.8746
▁اسمگلنگ	-11.8746
▁اینجیوسپرم	-11.8746
▁براسیلیا	-11.8746
ό	-11.8746
ي	-11.8746
θ	-11.8746
ì	-11.9116
ُ	-11.9501
а	-11.9501
о	-12.0752
с	-12.0752
е	-12.1207
Ü	-12.1207
۱	-12.1207
É	-12.1683
ê	-12.1683
к	-12.2183
ú	-12.2183
ě	-12.2709
и	-12.2709
ś	-12.3265
ա	-12.3853
י	-12.3853
ἀ	-12.4478
;	-12.4478
р	-12.4478
ύ	-12.4478
Π	-12.4478
χ	-12.4478
%	-12.5145
漢	-12.5145
â	-12.5145
ē	-12.5145
्	-12.5145
σ	-12.5145
ר	-12.5859
ַ	-12.5859
ة	-12.5859
۹	-12.5859
~	-12.6628
š	-12.6628
字	-12.6628
υ	-12.6628
ו	-12.6628
星	-12.7461
म	-12.7462
ô	-12.8371
у	-12.8371
в	-12.8371
ή	-12.8371
َ	-12.8371
Δ	-12.9371
王	-12.9371
β	-12.9371
נ	-12.9371
國	-13.0482
大	-13.0482
ò	-13.0482
ώ	-13.0482
л	-13.1732
מ	-13.1732
書	-13.1732
ã	-13.1732
ć	-13.1732
喜	-13.1732
ş	-13.1732
ǎ	-13.1732
φ	-13.1732
я	-13.1732
ध	-13.1732
т	-13.316
ְ	-13.316
ð	-13.316
§	-13.316
ź	-13.316
ק	-13.316
区	-13.316
子	-13.316
支	-13.316
西	-13.316
ד	-13.316
ת	-13.316
£	-13.3905
衛	-13.4827
试	-13.4827
å	-13.4827
ł	-13.4827
ž	-13.4827
Á	-13.4827
õ	-13.4827
ь	-13.4827
ン	-13.4827
书	-13.4827
府	-13.4827
東	-13.4827
ה	-13.4827
ħ	-13.4827
元	-13.4827
ु	-13.4827
$	-13.5906
פ	-13.6827
ִ	-13.6827
ス	-13.6827
ï	-13.6827
ʻ	-13.6827
Λ	-13.6827
أ	-13.6827
۴	-13.6827
ख	-13.6827
军	-13.6827
建	-13.6827
方	-13.6827
蕃	-13.6827
藏	-13.6827
陳	-13.6827
क	-13.6827
リ	-13.6827
白	-13.6827
ø	-13.6827
民	-13.6827
·	-13.6827
都	-13.9327
ー	-13.9327
ы	-13.9327
剑	-13.9327
đ	-13.9327
ŋ	-13.9327
Γ	-13.9327
法	-13.9327
?	-13.9327
@	-13.9327
¥	-13.9327
î	-13.9327
ù	-13.9327
û	-13.9327
ʼ	-13.9327
Η	-13.9327
ك	-13.9327
۲	-13.9327
۶	-13.9327
र	-13.9327
京	-13.9327
代	-13.9327
后	-13.9327
帥	-13.9327
田	-13.9327
한	-13.9327
г	-13.9327
发	-14.266
开	-14.266
驗	-14.266
验	-14.266
д	-14.266
ի	-14.266
œ	-14.266
趙	-14.266
士	-14.266
ý	-14.266
þ	-14.266
̀	-14.266
Β	-14.266
া	-14.266
り	-14.266
タ	-14.266
入	-14.266
吉	-14.266
唐	-14.266
徒	-14.266
朝	-14.266
督	-14.266
話	-14.266
话	-14.266
過	-14.266
장	-14.266
ז	-14.266
ս	-14.266
ा	-14.266
Ε	-14.2661
°	-14.6754
น	-14.766
ร	-14.766
ส	-14.766
า	-14.766
业	-14.766
产	-14.766
新	-14.766
高	-14.766
з	-14.766
Φ	-14.766
Ô	-14.766
Ν	-14.766
ल	-14.766
双	-14.766
江	-14.766
越	-14.766
雙	-14.766
讀	-14.766
Ø	-14.766
ъ	-14.766
Լ	-14.766
Պ	-14.766
բ	-14.766
կ	-14.766
ր	-14.766
ـ	-14.766
ۃ	-14.766
۰	-14.766
۸	-14.766
্	-14.766
プ	-14.766
レ	-14.766
ロ	-14.766
三	-14.766
东	-14.766
五	-14.766
候	-14.766
光	-14.766
包	-14.766
口	-14.766
复	-14.766
夷	-14.766
女	-14.766
寧	-14.766
对	-14.766
将	-14.766
師	-14.766
平	-14.766
張	-14.766
征	-14.766
後	-14.766
恢	-14.766
持	-14.766
按	-14.766
政	-14.766
族	-14.766
有	-14.766
校	-14.766
案	-14.766
楊	-14.766
武	-14.766
浦	-14.766
海	-14.766
渣	-14.766
灾	-14.766
知	-14.766
腐	-14.766
舍	-14.766
親	-14.766
豆	-14.766
重	-14.766
針	-14.766
音	-14.766
顯	-14.766
교	-14.766
도	-14.766
ח	-14.766
त	-14.7661
ि	-14.7661
隶	-15.7497
菩	-15.7498
红	-15.7499
紅	-15.75
基	-15.7501
十	-15.7502
利	-15.7503
切	-15.7504
來	-15.7505
中	-15.7506
シ	-15.7507
ら	-15.7508
ぶ	-15.7509
さ	-15.751
√	-15.7511
ὸ	-15.7512
ụ	-15.7513
ố	-15.7514
۷	-15.7515
ۂ	-15.7516
ٍ	-15.7517
ע	-15.7518
ך	-15.7519
ׂ	-15.752
ֵ	-15.7521
П	-15.7522
К	-15.7523
ψ	-15.7524
ζ	-15.7525
Ψ	-15.7526
Τ	-15.7527
Ι	-15.7528
̊	-15.7529
ơ	-15.753
Ş	-15.7531
ę	-15.7532
ė	-15.7533
Ē	-15.7534
ą	-15.7535
해	-15.7536
조	-15.7537
방	-15.7538
기	-15.7539
韓	-15.754
震	-15.7541
福	-15.7542
番	-15.7543
爭	-15.7544
渤	-15.7545
泥	-15.7546
汶	-15.7547
术	-15.7548
技	-15.7549
戰	-15.755
成	-15.7551
川	-15.7552
地	-15.7553
吐	-15.7554
南	-15.7555
ミ	-15.7556
フ	-15.7557
コ	-15.7558
キ	-15.7559
ァ	-15.756
ῆ	-15.7561
ष	-15.7562
ठ	-15.7563
ى	-15.7564
إ	-15.7565
ж	-15.7566
Р	-15.7567
В	-15.7568
Î	-15.7569
Æ	-15.757
戦	-15.7571
思	-15.7572
土	-15.7573
力	-15.7574
俄	-15.7575
争	-15.7576
丹	-15.7577
₹	-15.7578
Ṣ	-15.7579
ٔ	-15.758
ש	-15.7581
צ	-15.7582
ן	-15.7583
ָ	-15.7584
հ	-15.7585
ξ	-15.7586
̧	-15.7587
́	-15.7588
ļ	-15.7589
ğ	-15.759
Õ	-15.7591
±	-15.7592
}	-15.7593
{	-15.7594
卫	-15.7595
⁄	-15.7596
द	-15.7597
ּ	-15.7598
ն	-15.7599
յ	-15.76
ш	-15.7601
Σ	-15.7602
Α	-15.7603
ń	-15.7604
전	-15.7605
쟁	-15.7606
국	-15.7607
›	-15.7608
ל	-15.7609
ט	-15.761
Ś	-15.7611
Ā	-15.7612
❤	-15.7613
ṭ	-15.7614
й	-15.7615
ë	-15.7616
Ö	-15.7617
铺	-15.7618
紫	-15.7619
水	-15.762
库	-15.7621
坪	-15.7622
′	-15.7623
•	-15.7624
м	-15.7625
Ż	-15.7626
ْ	-15.7627
İ	-15.7628
<	-15.7629
航	-15.763
统	-15.7631
系	-15.7632
斗	-15.7633
导	-15.7634
北	-15.7635
ῖ	-15.7636
Χ	-15.7637
Κ	-15.7638
ß	-15.7639
ḥ	-15.764
€	-15.7641
۳	-15.7642
ّ	-15.7643
→	-15.7644
^	-15.7645
۵	-15.7646
̃	-15.7647
ç	-15.7648
н	-15.7649
_	-15.765
ṇ	-15.7651
א	-15.7652
ı	-15.7653
έ	-15.7654
ñ	-15.7655
×	-15.7656
#	-15.7657
ً	-15.7658
[	-15.7659
ژ	-15.766
ง	-15.766
ย	-15.766
ศ	-15.766
อ	-15.766
ิ	-15.766
ี	-15.766
เ	-15.766
โ	-15.766
Є	-15.766
ч	-15.766
济	-15.766
经	-15.766
Ł	-15.766
秀	-15.766
臣	-15.766
豊	-15.766
대	-15.766
¡	-15.766
丁	-15.766
何	-15.766
妹	-15.766
蒲	-15.766
逸	-15.766
金	-15.766
¢	-15.766
ċ	-15.766
ġ	-15.766
ő	-15.766
Š	-15.766
ɨ	-15.766
А	-15.766
п	-15.766
х	-15.766
ց	-15.766
ם	-15.766
ס	-15.766
ः	-15.766
ग	-15.766
জ	-15.766
প	-15.766
ম	-15.766
য	-15.766
র	-15.766
ল	-15.766
স	-15.766
ಚ	-15.766
ಮ	-15.766
ಶ	-15.766
ಿ	-15.766
್	-15.766
ṛ	-15.766
ỉ	-15.766
ồ	-15.766
ờ	-15.766
ἐ	-15.766
ὐ	-15.766
ὶ	-15.766
は	-15.766
ト	-15.766
パ	-15.766
ピ	-15.766
ャ	-15.766
ュ	-15.766
上	-15.766
下	-15.766
主	-15.766
义	-15.766
事	-15.766
仔	-15.766
仕	-15.766
他	-15.766
会	-15.766
侍	-15.766
像	-15.766
兵	-15.766
凹	-15.766
刘	-15.766
前	-15.766
剧	-15.766
印	-15.766
叠	-15.766
和	-15.766
圖	-15.766
块	-15.766
坤	-15.766
城	-15.766
堂	-15.766
塊	-15.766
変	-15.766
天	-15.766
奴	-15.766
安	-15.766
審	-15.766
巡	-15.766
帝	-15.766
常	-15.766
廷	-15.766
总	-15.766
提	-15.766
撫	-15.766
教	-15.766
文	-15.766
斯	-15.766
日	-15.766
時	-15.766
替	-15.766
本	-15.766
朱	-15.766
杭	-15.766
松	-15.766
様	-15.766
標	-15.766
比	-15.766
汉	-15.766
泉	-15.766
準	-15.766
潮	-15.766
烏	-15.766
片	-15.766
理	-15.766
用	-15.766
甫	-15.766
異	-15.766
皇	-15.766
社	-15.766
緑	-15.766
緣	-15.766
緩	-15.766
绍	-15.766
義	-15.766
耶	-15.766
興	-15.766
船	-15.766
良	-15.766
苏	-15.766
苗	-15.766
草	-15.766
萨	-15.766
薩	-15.766
虫	-15.766
蝶	-15.766
表	-15.766
覆	-15.766
見	-15.766
言	-15.766
議	-15.766
起	-15.766
道	-15.766
陵	-15.766
陽	-15.766
館	-15.766
體	-15.766
그	-15.766
독	-15.766
로	-15.766
리	-15.766
수	-15.766
스	-15.766
예	-15.766
회	-15.766
拼	-15.766
Ó	-15.7661
ク	-15.7661
チ	-15.7661
Х	-15.7661
б	-15.7661
Հ	-15.7661
տ	-15.7661
ظ	-15.7661
न	-15.7661
प	-15.7661
軍	-15.7661
